и 346729
— 277530
в 259379
на 163051
не 160559
с 109466
по@@ 97130
я 92835
что 83950
за@@ 81037
к 71805
не@@ 66780
о@@ 63783
у 63436
у@@ 59383
он 57339
на@@ 56922
. 56873
но 56649
как 55562
а 53886
вы@@ 52413
с@@ 48182
в@@ 47891
, 47437
про@@ 46761
по 46307
его 44827
при@@ 44381
ко@@ 44334
до@@ 43594
ть 43181
«@@ 43170
за 41526
! 40771
ли 38933
ва@@ 38092
из 37631
д@@ 37173
? 36049
от@@ 35837
: 35670
И 35647
но@@ 35530
т 35381
мо@@ 35027
ж@@ 34982
о 34918
от 34171
со@@ 34100
я@@ 34009
ю 33833
ни@@ 32997
А 32852
м 32735
ро@@ 32720
… 32130
же 31925
и@@ 31742
л 31585
ле@@ 31463
ка@@ 31408
т@@ 30766
ный 30604
ли@@ 30564
все 30392
во@@ 30234
ты 30232
й, 29916
-@@ 29855
я, 29694
раз@@ 29343
ной 29232
под@@ 29184
да@@ 29159
ти@@ 28960
это 28650
ла 28573
В 28561
ч@@ 28481
ма@@ 28195
й 28113
де@@ 27699
то@@ 27657
ные 27321
или 27249
е 27235
ы 27177
Я 27001
е@@ 26978
жи@@ 26767
ки 26726
ви@@ 26714
С@@ 26616
ло@@ 26537
пере@@ 26432
ка 26429
бо@@ 26391
з@@ 26284
ре@@ 26251
и, 26197
м, 25893
го@@ 25869
та@@ 25767
было 25682
ве@@ 24946
бы 24865
м@@ 24761
б@@ 24595
; 24515
Он 24268
ш@@ 24181
ра@@ 24161
ди@@ 23802
ных 23694
чи@@ 23608
 — 23481
(@@ 23270
то 22735
ме@@ 22556
— @@ 22446
ного 22103
По@@ 22051
м. 21900
й. 21888
па@@ 21848
так 21741
е, 21677
был 21496
ча@@ 21426
ду@@ 21406
она 21362
об@@ 21082
бе@@ 21076
ль@@ 21033
ба@@ 20819
ни 20459
ку@@ 20435
й@@ 20361
н@@ 20317
ру@@ 20313
из@@ 20307
ми 20086
ми@@ 20046
ста@@ 20013
О@@ 19979
рас@@ 19830
са@@ 19727
че@@ 19518
т, 19397
ше@@ 19354
мы 19351
се@@ 19349
только 19299
ет 19257
к@@ 19144
до 19093
ть, 19017
си@@ 18857
да 18801
те@@ 18765
га@@ 18637
ла@@ 18635
а@@ 18483
Но 18368
лась 18336
п@@ 18245
те 18126
еще 18006
их 17968
хо@@ 17962
В@@ 17952
они 17937
та 17868
х 17736
ст@@ 17700
г@@ 17684
сказал 17636
ная 17566
я. 17555
сто@@ 17529
су@@ 17508
ко 17438
ша@@ 17419
ться 17417
ку 17251
но, 17102
х@@ 17002
ее 16969
А@@ 16838
ки@@ 16735
для 16614
уже 16611
ным 16462
ска@@ 16452
ное 16335
ю, 16330
меня 16327
вал 16322
ему 16258
зна@@ 16258
пе@@ 16103
мне 16100
ри@@ 16062
ин@@ 15766
жа@@ 15657
пи@@ 15612
когда 15476
вы 15354
вер@@ 15330
во 15325
л@@ 15257
к, 14956
т. 14897
ту@@ 14756
е. 14673
ло 14662
р@@ 14629
н 14620
ры@@ 14561
му@@ 14556
ю@@ 14484
ь@@ 14444
лся 14404
сти@@ 14403
ской 14228
же@@ 14112
На@@ 14071
ть. 14051
ем 14049
л, 13981
чтобы 13854
него 13776
бы@@ 13744
ь 13620
ную 13460
ла, 13440
». 13438
ке 13342
ши@@ 13313
пре@@ 13310
гу@@ 13210
ен@@ 13207
в, 13163
ф@@ 13027
вая 12967
Не 12927
ё@@ 12914
У@@ 12910
ско@@ 12893
ля@@ 12888
ну@@ 12868
На 12705
ился 12695
ми, 12680
ва 12613
лись 12596
Д@@ 12581
ном 12553
пу@@ 12518
х, 12435
ка, 12374
ты@@ 12356
И@@ 12265
кон@@ 12237
ли, 12175
» 12159
бу@@ 12075
щ@@ 12063
ского 12051
ют 12026
ки, 12002
ня@@ 11984
жен@@ 11932
ей 11837
чер@@ 11771
пол@@ 11730
тся 11716
кой 11706
ю. 11695
, — 11670
под 11653
р 11640
ский 11570
це@@ 11555
вать 11551
лен@@ 11409
ся 11292
ги@@ 11265
ми. 11165
были 11147
ь, 11063
ется 10992
тель@@ 10968
чу@@ 10960
ки. 10943
би@@ 10899
Это 10838
ила 10817
ды@@ 10773
была 10770
го 10765
к. 10758
со 10755
воз@@ 10716
пер@@ 10701
ились 10658
-то 10654
ы@@ 10630
ть@@ 10435
оста@@ 10397
зо@@ 10335
лю@@ 10294
но. 10195
ря@@ 10162
Ка@@ 10094
ра 10058
ка. 10048
сы@@ 10042
) 9993
ны@@ 9945
если 9801
ку, 9789
в. 9757
К@@ 9752
ду 9685
вот 9644
д 9542
вой 9532
э@@ 9480
За@@ 9471
них 9450
щи@@ 9434
и. 9371
ными 9350
очень 9285
М@@ 9254
л. 9243
ц@@ 9238
ь. 9221
ще@@ 9212
х. 9204
му 9179
Е@@ 9150
ком 9118
зи@@ 9117
», 9094
где 9075
вали 9069
дела@@ 9043
мы@@ 9025
ней 8997
лу@@ 8970
Ма@@ 8945
нее 8943
г 8940
Вот 8930
Са@@ 8900
род@@ 8880
ща@@ 8878
4@@ 8866
мен@@ 8785
ся, 8773
Б@@ 8763
время 8735
пла@@ 8722
чем 8714
сти 8673
3@@ 8601
сло@@ 8589
голо@@ 8583
будет 8549
раз 8545
Т@@ 8514
Г@@ 8510
Ко@@ 8468
гор@@ 8456
стра@@ 8454
сле@@ 8357
ха@@ 8342
те, 8337
нас 8307
ся. 8290
вз@@ 8283
даже 8253
тро@@ 8241
нул 8238
ль 8197
П@@ 8176
ние 8146
Как 8129
ку. 8115
бра@@ 8049
Ты 8045
Что 8040
ма 8033
Она 8028
5@@ 8010
без 8002
тя@@ 7973
там 7943
ском 7941
чен@@ 7934
́@@ 7925
ли. 7890
ци@@ 7889
тво@@ 7796
6@@ 7760
 @@ 7701
ет@@ 7685
) — 7677
ем@@ 7666
пы@@ 7654
том 7634
бере@@ 7623
ков 7610
ла. 7592
жал@@ 7548
ино@@ 7538
стал 7513
кра@@ 7505
тебя 7494
Не@@ 7493
Та@@ 7488
сть 7460
хи@@ 7455
р, 7452
года 7403
У 7403
над 7402
сту@@ 7395
Про@@ 7394
С 7358
Н@@ 7331
теперь 7301
им 7298
доро@@ 7296
Мо@@ 7262
). 7250
ним 7245
сла@@ 7228
лы@@ 7174
сво@@ 7168
да, 7167
ты, 7145
тор@@ 7109
Э@@ 7071
сь@@ 7062
ер@@ 7049
Бо@@ 7042
ва, 7040
ени@@ 7036
ил@@ 7016
сты@@ 7011
тут 7011
себя 7010
тебе 7004
вой@@ 7003
поло@@ 6991
мер@@ 6979
на, 6966
пле@@ 6936
гру@@ 6933
сте@@ 6928
тра@@ 6925
дом 6908
стро@@ 6902
гла@@ 6892
та, 6888
дума@@ 6888
ся@@ 6884
ны 6877
ке@@ 6869
ская 6854
тельно 6840
тоже 6789
сь 6759
вя@@ 6734
ских 6731
Л@@ 6729
гра@@ 6722
Да 6699
Мы 6697
этого 6697
кри@@ 6696
де 6692
этот 6662
всех 6654
све@@ 6646
пра@@ 6622
ы, 6617
з 6606
ство 6601
шь 6601
вра@@ 6599
через 6591
ре 6560
у, 6542
лин@@ 6528
потом 6520
один 6513
Ну, 6486
шу@@ 6466
ник 6436
од@@ 6434
нам 6428
7@@ 6407
спа@@ 6379
кто 6374
ина@@ 6368
ке, 6360
той 6340
тол@@ 6337
есть 6325
слу@@ 6314
Они 6294
Я@@ 6288
ина 6287
Р@@ 6247
реки 6246
ясь 6224
сме@@ 6223
перед 6222
гро@@ 6221
ды 6194
рен@@ 6192
бро@@ 6172
га 6149
- 6142
кру@@ 6140
При@@ 6136
ские 6130
он, 6124
спросил 6122
тер@@ 6119
то, 6111
того 6099
ди 6093
го, 6092
ции 6075
ск@@ 6067
которые 6067
лени@@ 6056
сил@@ 6045
боль@@ 6027
ев@@ 6010
сторо@@ 5996
н, 5987
ко, 5976
пред@@ 5971
ничего 5964
стре@@ 5964
ван@@ 5962
при 5954
ски@@ 5938
высо@@ 5919
ство@@ 5916
ис@@ 5916
на. 5914
сен@@ 5913
ца@@ 5906
Все 5902
8@@ 5900
стоя@@ 5870
кий 5870
р. 5868
сам 5849
шка 5837
жени@@ 5816
са 5781
!.. 5770
ле 5754
ор@@ 5747
кие 5740
Ф@@ 5736
вели@@ 5715
кого 5703
вас 5691
говори@@ 5688
все@@ 5679
зем@@ 5678
ства 5662
Ми@@ 5657
цы 5654
надо 5653
подо@@ 5647
9@@ 5647
вался 5647
тру@@ 5646
ти 5636
себе 5631
вил 5627
или@@ 5626
ра, 5613
рабо@@ 5610
вам 5606
ту 5601
обо@@ 5596
да. 5595
дру@@ 5589
ствен@@ 5587
чего 5583
нов@@ 5575
можно 5528
его, 5508
больше 5503
же, 5502
нем 5488
вдруг 5484
этом 5474
вала 5458
после 5455
вшись 5455
дер@@ 5454
день 5444
может 5438
вод@@ 5438
б 5433
ение 5430
кро@@ 5429
Так 5420
ан@@ 5406
тан@@ 5405
ут@@ 5394
дал 5385
—@@ 5373
ца 5362
дерев@@ 5353
нет 5345
дво@@ 5341
каза@@ 5335
Ш@@ 5324
Когда 5321
), 5320
пой@@ 5320
,@@ 5307
кор@@ 5292
несколько 5282
Да@@ 5276
ал@@ 5273
тре@@ 5264
году 5263
мой 5249
ц 5244
та. 5213
2@@ 5211
сейчас 5210
воро@@ 5195
ило@@ 5191
ности 5187
своей 5173
ет, 5168
хоро@@ 5166
вол@@ 5160
ва. 5154
сдела@@ 5152
который 5151
гал@@ 5147
ок@@ 5142
вает 5120
ния 5114
с. 5111
ких 5106
Со@@ 5103
дро@@ 5100
чал@@ 5097
ил, 5093
быть 5079
полу@@ 5078
том, 5070
говор@@ 5067
свою 5063
аль@@ 5047
ша 5042
ке. 5036
Ва@@ 5019
ность 5018
То@@ 5009
ья 5002
дал@@ 5001
шен@@ 5000
будто 4987
пря@@ 4986
Если 4984
кры@@ 4978
шли 4971
З@@ 4967
ян@@ 4959
ж 4953
горо@@ 4953
вид@@ 4950
об 4923
Ра@@ 4911
каж@@ 4896
у. 4892
вет@@ 4869
ков@@ 4868
кар@@ 4857
ду, 4835
зу@@ 4834
ос@@ 4832
два 4830
ден@@ 4826
Ба@@ 4822
го. 4807
Го@@ 4797
сер@@ 4785
ходи@@ 4784
ника@@ 4781
-й 4779
.@@ 4769
мор@@ 4767
По 4764
От@@ 4746
обра@@ 4740
пя@@ 4737
ения 4733
кая 4723
Во@@ 4718
Ж@@ 4718
прав@@ 4707
ран@@ 4706
откры@@ 4701
вый 4689
ный, 4683
ху@@ 4681
!» 4671
шь, 4671
уж 4663
вых 4659
ги 4655
200@@ 4652
опять 4650
ба 4649
теле@@ 4648
вым 4647
сь, 4639
Ч@@ 4638
глу@@ 4628
снова 4623
ход@@ 4622
гре@@ 4617
ере@@ 4615
ться, 4613
ву@@ 4602
г, 4601
К 4578
ются 4576
лег@@ 4568
Код 4564
мя@@ 4553
по-@@ 4551
бле@@ 4540
гу 4537
вые 4524
слы@@ 4519
Ли@@ 4514
0 4510
это@@ 4503
-нибудь 4502
дь@@ 4493
дя@@ 4485
Вы@@ 4477
ло, 4476
три 4466
тый 4463
ет. 4462
ы. 4461
дет 4446
он@@ 4435
сне@@ 4431
i@@ 4429
ть? 4416
чно 4416
тен@@ 4412
име@@ 4406
фо@@ 4406
совсем 4406
му, 4404
реш@@ 4398
точ@@ 4396
ди, 4394
быть, 4393
с, 4389
язы@@ 4388
мыс@@ 4388
ес@@ 4385
эти 4378
лоша@@ 4365
ар@@ 4363
без@@ 4362
хва@@ 4360
сказа@@ 4353
нен@@ 4347
чь@@ 4345
этой 4343
верну@@ 4331
. @@ 4329
ному 4324
кин@@ 4318
вший 4317
До@@ 4306
сь. 4299
вин@@ 4298
e@@ 4298
кну@@ 4297
глаза 4279
0@@ 4274
пар@@ 4272
человек 4260
поз@@ 4245
всегда 4242
подня@@ 4241
Си@@ 4231
вого 4228
ман@@ 4227
пло@@ 4224
ись 4222
сказала 4220
потому 4219
ведь 4198
пос@@ 4198
зе@@ 4198
челове@@ 4195
три@@ 4193
Па@@ 4186
сть@@ 4186
много 4184
Нет, 4179
более 4172
За 4168
Х@@ 4165
шко@@ 4163
мальчи@@ 4158
ками 4149
Де@@ 4141
Ю@@ 4138
спо@@ 4138
всем 4136
ля 4135
тем@@ 4132
мог 4132
между 4124
ра. 4118
воло@@ 4113
види@@ 4110
лось 4103
что-то 4099
илось 4090
тогда 4080
стен@@ 4080
ро 4070
встре@@ 4067
ление 4065
ях 4065
тяну@@ 4065
виде@@ 4060
Вы 4052
рин@@ 4051
вед@@ 4040
ем. 4040
дра@@ 4039
тот 4026
– 4026
Бу@@ 4025
уда@@ 4023
вла@@ 4016
зал@@ 4015
улыб@@ 4010
жда@@ 4008
ез@@ 4002
хле@@ 4001
! — 3998
мно@@ 3992
стя@@ 3990
ким 3989
побе@@ 3986
стан@@ 3975
ления 3971
ству@@ 3962
нов 3952
ны, 3952
комна@@ 3945
д. 3940
такой 3939
вал@@ 3930
Только 3927
того, 3926
помо@@ 3924
шла 3917
ше 3914
Ку@@ 3912
свя@@ 3910
смо@@ 3909
чи 3905
й! 3904
моло@@ 3901
говорил 3899
г. 3897
всё 3895
Хо@@ 3885
вани@@ 3883
ев 3867
здесь 3854
фи@@ 3848
ст 3847
ться. 3843
бли@@ 3833
мол@@ 3833
руки 3831
ниц@@ 3828
шел 3819
жно 3819
ге@@ 3811
благо@@ 3809
ве 3804
гото@@ 3800
весь 3799
ком@@ 3791
писа@@ 3784
чита@@ 3780
те. 3773
тов 3763
ское 3753
своего 3743
лиц@@ 3734
собра@@ 3730
понима@@ 3723
он. 3720
дать 3720
крас@@ 3718
гну@@ 3718
5 3717
ступа@@ 3716
узна@@ 3710
ники 3710
свои 3707
малень@@ 3706
ем, 3702
ков, 3696
люб@@ 3694
a@@ 3694
сразу 3692
ца, 3691
ши 3691
цен@@ 3690
t@@ 3688
гля@@ 3688
слуша@@ 3687
ду. 3686
кан@@ 3682
дали 3674
так, 3665
сил 3656
2 3645
ило 3643
кто@@ 3640
вся@@ 3630
душ@@ 3627
государственном 3626
тем 3622
ды, 3620
ний 3609
нес@@ 3608
ма, 3595
отве@@ 3593
вен@@ 3588
объекта 3587
ны. 3587
наро@@ 3585
ей@@ 3585
город@@ 3581
лет@@ 3578
паль@@ 3577
лет 3574
взгля@@ 3573
вил@@ 3572
не, 3564
куда 3562
водном 3560
сно@@ 3555
работа@@ 3550
жу@@ 3549
лан@@ 3544
щен@@ 3539
лов@@ 3532
10@@ 3530
ответил 3527
своих 3524
рез@@ 3522
фа@@ 3518
вместе 3514
ты. 3512
долго 3512
люби@@ 3509
почти 3508
силь@@ 3508
реестре — 3506
иль@@ 3490
га, 3489
тые 3487
но-@@ 3486
1 3485
вали@@ 3484
поро@@ 3484
всего 3483
дь 3479
цар@@ 3473
кой, 3461
чин@@ 3460
радо@@ 3456
Но@@ 3446
ну 3445
учи@@ 3437
стали 3435
двер@@ 3433
кла@@ 3430
Ме@@ 3428
лом 3427
запа@@ 3427
цо@@ 3425
ло. 3425
рав@@ 3423
другой 3414
ум@@ 3413
вались 3408
берегу 3406
нии 3405
вую 3402
друго@@ 3402
дя 3400
бира@@ 3399
вы, 3396
ющи@@ 3394
ров@@ 3392
Да, 3391
обла@@ 3386
вопро@@ 3383
словно 3379
фор@@ 3379
само@@ 3371
Ни@@ 3368
кур@@ 3364
про 3364
кни@@ 3355
эту 3350
жить 3347
еро@@ 3344
ные, 3344
лицо 3337
ха 3336
ву 3323
пока 3316
уста@@ 3315
ется, 3313
кую 3310
зы@@ 3309
им@@ 3305
рука@@ 3304
времен@@ 3297
бес@@ 3292
уме@@ 3292
д, 3291
жу 3285
тель 3284
ту, 3277
вом 3273
яс@@ 3273
ским 3268
Се@@ 3268
его. 3267
нь@@ 3267
Ве@@ 3264
ют@@ 3264
чил 3263
лю 3263
коро@@ 3262
случа@@ 3261
дело 3259
ье@@ 3256
счита@@ 3255
Ста@@ 3254
чь 3253
поня@@ 3250
говорит 3249
точно 3243
Мне 3241
Пав@@ 3234
Те@@ 3232
что@@ 3231
меня@@ 3223
мест@@ 3221
ча 3219
зан@@ 3219
ску@@ 3217
лась, 3215
гу, 3214
ья@@ 3214
держи@@ 3210
ъ@@ 3207
нему 3205
:— 3201
дол@@ 3199
хну@@ 3193
Моск@@ 3190
длин@@ 3188
ром 3188
чени@@ 3187
? — 3183
че 3181
прин@@ 3180
сы 3179
дил 3178
сказал: 3176
произ@@ 3175
луч@@ 3173
ни, 3170
стран@@ 3169
ках 3167
ле, 3165
попа@@ 3165
увиде@@ 3162
бой@@ 3160
Ну 3152
рт@@ 3151
спе@@ 3149
жение 3146
дно 3130
Его 3129
Ле@@ 3124
находится 3124
-го 3123
ог@@ 3115
нуж@@ 3115
»@@ 3110
дей@@ 3110
поле@@ 3106
став@@ 3106
дет@@ 3105
приня@@ 3100
жал 3098
страш@@ 3095
ника 3094
ще 3087
вое 3087
лые 3086
хра@@ 3084
низ@@ 3082
похо@@ 3081
Бе@@ 3080
торо@@ 3080
остро@@ 3079
шка@@ 3078
вшие 3078
лод@@ 3075
ваться 3075
ступ@@ 3074
ью 3064
стало 3062
са, 3062
тяже@@ 3060
солда@@ 3056
жела@@ 3055
жил 3051
н. 3051
во, 3050
Ан@@ 3050
горе@@ 3046
весе@@ 3044
быстро 3041
взя@@ 3039
их, 3038
чал 3038
Ви@@ 3036
друг 3034
река 3029
воен@@ 3028
201@@ 3028
Га@@ 3028
бы, 3025
тиче@@ 3024
ён@@ 3022
ме 3017
зву@@ 3016
ешь 3015
1@@ 3013
год@@ 3010
ед@@ 3009
вел 3007
хотя 3002
мая 2999
Ро@@ 2998
ц, 2998
20@@ 2997
(19@@ 2997
оби@@ 2994
доста@@ 2988
7 2988
против 2979
ина, 2979
сти, 2974
Чувашской 2973
ть! 2971
ред@@ 2969
окру@@ 2969
даль@@ 2969
3 2969
шей 2968
доб@@ 2961
тал 2958
свой 2954
меня, 2953
Мар@@ 2951
кре@@ 2949
кое 2948
или, 2948
дой 2947
ту. 2947
ющий 2943
ходит 2940
расска@@ 2938
районе 2936
образ@@ 2933
скую 2928
Теперь 2921
9 2915
пор@@ 2915
ти, 2913
продол@@ 2913
кину@@ 2912
своим 2910
горя@@ 2909
обе@@ 2907
тели 2901
ган@@ 2899
голову 2896
194@@ 2895
мин@@ 2893
стоял 2892
казалось, 2892
коло@@ 2890
Ду@@ 2885
рус@@ 2882
ят 2877
4 2876
т! 2875
всю 2874
около 2871
которых 2869
вос@@ 2869
u@@ 2868
хорошо 2867
шин@@ 2866
вле@@ 2863
Лю@@ 2854
свет@@ 2853
ся? 2851
день@@ 2850
деву@@ 2848
м: 2843
что, 2837
убе@@ 2837
ин, 2836
8 2835
ры, 2835
люди 2834
ой 2830
му. 2829
игра@@ 2826
возду@@ 2822
также 2820
ну, 2820
вши@@ 2819
цве@@ 2819
уго@@ 2818
яр@@ 2815
уби@@ 2810
заме@@ 2809
гом 2807
гу. 2804
ходил 2801
пусти@@ 2801
шо@@ 2799
ини@@ 2799
успе@@ 2792
Ар@@ 2791
стви@@ 2787
послед@@ 2783
6 2779
вста@@ 2778
жа 2777
посе@@ 2774
га. 2771
соба@@ 2768
ды. 2767
нико@@ 2767
пен@@ 2766
ца. 2763
хотел 2760
Потом 2760
дов 2759
одной 2753
мо 2753
ребя@@ 2751
па 2750
хозяй@@ 2748
дан@@ 2746
сем@@ 2746
вание 2737
смер@@ 2736
быва@@ 2733
Ла@@ 2730
так@@ 2729
"@@ 2728
дале@@ 2727
лась. 2726
дне@@ 2722
Пер@@ 2718
стер@@ 2717
образо@@ 2716
сто 2709
стью 2709
сть, 2708
одного 2707
шь@@ 2706
среди 2706
бе 2705
сан@@ 2702
ливо 2697
свер@@ 2696
ших 2696
стар@@ 2691
никогда 2688
199@@ 2681
тин@@ 2679
Вер@@ 2676
ье 2675
слова 2674
ур@@ 2670
поч@@ 2669
влен@@ 2669
дви@@ 2666
сколько 2666
води@@ 2664
чка 2664
ше, 2661
d@@ 2661
чки 2659
После 2655
o@@ 2655
ное, 2652
ла: 2651
ют, 2650
ак@@ 2650
вания 2647
?» 2646
следу@@ 2646
ший 2646
прямо 2645
ня 2645
будут 2644
улиц@@ 2640
не. 2640
женщ@@ 2640
начал 2639
бре@@ 2638
Ц@@ 2636
шки 2635
шло 2633
пове@@ 2630
жала 2629
собо@@ 2628
ними 2627
дут 2627
которой 2626
Никола@@ 2624
этих 2621
тря@@ 2620
ом 2619
года@@ 2616
настоя@@ 2613
кими 2613
ко. 2612
са. 2610
де, 2607
руку 2606
ене@@ 2605
ная, 2605
Кто 2603
бри@@ 2601
мину@@ 2599
ста 2599
одно@@ 2599
вился 2598
должен 2595
лый 2595
муж@@ 2589
нет, 2587
фе@@ 2585
вля@@ 2584
поя@@ 2583
хозя@@ 2582
народ@@ 2581
вско@@ 2581
ил. 2579
пото@@ 2577
рон@@ 2576
вших 2575
бер@@ 2573
ваясь 2572
пода@@ 2571
глав@@ 2569
жи 2568
боро@@ 2567
Господ@@ 2563
серд@@ 2563
ль, 2552
пес@@ 2551
свое 2551
уч@@ 2549
никто 2545
вше@@ 2542
Сергей 2540
чуть 2540
ек@@ 2538
а, 2537
18@@ 2537
Тогда 2537
зако@@ 2536
ком, 2534
тай@@ 2531
золо@@ 2530
тил 2529
тар@@ 2525
тив@@ 2522
ень@@ 2522
нужно 2519
нем@@ 2516
ков. 2515
тому 2515
ма. 2514
тон@@ 2514
сть. 2511
сове@@ 2509
пись@@ 2506
Раз@@ 2506
зыва@@ 2504
мил@@ 2504
ч 2504
м? 2504
ников 2503
вно 2501
бан@@ 2500
машин@@ 2498
ги, 2495
пока@@ 2491
скры@@ 2490
собира@@ 2487
зло@@ 2487
цев 2484
син@@ 2482
Из 2482
добро@@ 2481
которого 2479
ещё 2475
ри 2474
говоря@@ 2473
сказал@@ 2472
ото@@ 2466
12@@ 2464
ней@@ 2464
чной 2460
Бы@@ 2459
ешь, 2455
меся@@ 2455
твер@@ 2452
мель@@ 2452
близ@@ 2450
буде@@ 2450
ги. 2448
собой 2445
уз@@ 2444
наз@@ 2443
лез@@ 2442
обще@@ 2441
пуска@@ 2440
валась 2435
ски 2433
ция 2431
ось 2428
мать 2427
плы@@ 2426
сти. 2425
ине 2423
большой 2420
вез@@ 2419
Устье 2417
ешь@@ 2416
?.. 2415
хоть 2412
бор@@ 2411
ус@@ 2407
широ@@ 2406
вал, 2404
Ре@@ 2404
стала 2401
восто@@ 2401
вечер@@ 2399
помощ@@ 2394
дома 2393
фрон@@ 2392
она, 2391
сад@@ 2391
уг@@ 2391
извест@@ 2389
шая 2388
Иван 2386
каждый 2384
ят@@ 2384
шего 2384
пошел 2384
гна@@ 2383
преж@@ 2382
две 2382
ый 2381
пят@@ 2380
ся! 2377
труд@@ 2375
Андре@@ 2373
вич 2373
жизнь 2372
ниче@@ 2372
ина. 2372
говорить 2366
лу 2365
ша, 2365
попро@@ 2364
О 2363
ему, 2360
эта 2358
шал@@ 2355
чтоб 2353
бар@@ 2352
сну@@ 2352
s@@ 2351
обрат@@ 2350
прово@@ 2349
вшись, 2349
сви@@ 2349
Госпо@@ 2344
возмож@@ 2344
сами 2341
ник, 2340
щий 2340
п 2339
ё 2338
прави@@ 2337
бу 2337
пры@@ 2336
её 2335
17@@ 2335
стари@@ 2334
иной 2334
бур@@ 2333
пять 2330
молчал@@ 2330
молча@@ 2328
00@@ 2328
заня@@ 2325
взял 2325
лучше 2324
ну. 2324
дом, 2320
какой 2319
Республики 2317
ибо 2317
ше. 2317
тить 2314
груп@@ 2312
Алексе@@ 2309
согла@@ 2305
уди@@ 2303
м! 2302
холод@@ 2300
нет@@ 2299
внима@@ 2297
чет@@ 2294
немец@@ 2294
бума@@ 2294
забо@@ 2292
чо@@ 2292
лож@@ 2291
тая 2290
из-за 2289
суще@@ 2287
дре@@ 2284
ть… 2284
сере@@ 2280
реши@@ 2274
l@@ 2274
обы@@ 2271
мар@@ 2270
Му@@ 2267
вар@@ 2267
бога@@ 2262
которое 2257
сму@@ 2253
город 2252
одна 2250
пти@@ 2249
ге 2246
началь@@ 2244
ясь, 2243
гово@@ 2243
старо@@ 2243
зада@@ 2242
ями 2240
которая 2239
зер@@ 2238
воль@@ 2236
Ведь 2231
гляде@@ 2230
важ@@ 2229
ждени@@ 2228
лав@@ 2226
правля@@ 2221
его@@ 2219
ным, 2218
ил 2216
ху 2214
част@@ 2212
дить 2211
давно 2210
ров 2210
нима@@ 2209
Республи@@ 2208
Ки@@ 2207
начина@@ 2204
спокой@@ 2203
рядом 2201
гал 2198
замет@@ 2196
все, 2194
солн@@ 2194
ви 2193
хал@@ 2191
ехал 2190
цы@@ 2187
мени@@ 2187
деся@@ 2187
мое 2186
сить 2186
пуст@@ 2183
тых 2183
кой. 2180
Под@@ 2179
шь? 2178
[@@ 2176
ни. 2173
ющие 2172
чу 2170
ые 2169
просто 2165
такое 2164
3. 2164
глубо@@ 2164
ходили 2163
Серге@@ 2163
нами 2163
гне@@ 2163
бин@@ 2162
теля@@ 2162
ожи@@ 2161
ток 2161
йся 2160
нулся 2160
буду 2159
шу 2159
выра@@ 2157
шие 2156
поли@@ 2155
сел 2155
лё@@ 2155
най@@ 2154
стве 2153
яв@@ 2150
смотри@@ 2150
первый 2150
графи@@ 2148
цы, 2145
йте 2142
лишь 2142
От 2141
мал@@ 2141
Лу@@ 2139
голос 2139
ти. 2139
мина@@ 2138
коле@@ 2137
матри@@ 2137
поднима@@ 2136
думал 2136
сси@@ 2136
ник@@ 2135
закры@@ 2134
жать 2132
жизни 2129
ся: 2129
198@@ 2129
сель@@ 2125
мет@@ 2122
Су@@ 2120
ины 2119
двух 2119
щени@@ 2118
жали 2117
шта@@ 2116
Алексей 2114
цион@@ 2111
дем 2109
упа@@ 2108
ста, 2107
ете 2106
лич@@ 2101
надо@@ 2100
руж@@ 2100
сыпа@@ 2100
я! 2098
ш 2097
рю@@ 2096
чув@@ 2096
рил 2093
 км 2093
оно 2093
смотрел 2092
r@@ 2092
креп@@ 2091
имен@@ 2091
зелен@@ 2090
поме@@ 2089
гар@@ 2086
щал@@ 2085
бед@@ 2083
камен@@ 2081
вышел 2077
просто@@ 2073
ик@@ 2073
телей 2072
ходя@@ 2072
о. 2072
конечно, 2068
людей 2065
там, 2063
Об@@ 2058
буду@@ 2056
спи@@ 2054
плен@@ 2054
вс@@ 2052
армии 2052
ре, 2050
Ру@@ 2050
уй@@ 2049
краси@@ 2047
вернулся 2046
кров@@ 2045
медленно 2043
…» 2042
наде@@ 2041
скому 2040
4. 2038
этим 2036
лек@@ 2035
дня 2034
трево@@ 2033
мир@@ 2032
скри@@ 2032
сказать 2030
много@@ 2028
мн@@ 2028
сын 2027
кому 2023
истори@@ 2022
Петро@@ 2020
гло@@ 2020
прош@@ 2019
Пу@@ 2018
вести 2016
товарищ@@ 2014
ся… 2013
человек, 2012
хотелось 2011
ди. 2010
следо@@ 2008
сиде@@ 2006
Господь 2006
иска@@ 2006
м… 2006
Чу@@ 2006
5. 2005
ной, 2005
вокруг 2005
видел 2005
ством 2004
ял 2004
нула 2001
прия@@ 2000
Пет@@ 1999
ч, 1999
други@@ 1998
уро@@ 1998
…@@ 1997
шка, 1997
йти 1997
водо@@ 1996
нь 1996
возле 1995
вшего 1995
спраши@@ 1995
увидел 1994
явля@@ 1994
е: 1994
России, 1993
Николай 1992
вор@@ 1991
паро@@ 1991
отец 1991
ками, 1989
ры. 1989
мне, 1987
Ива@@ 1979
сегодня 1977
полка 1976
нов, 1976
значи@@ 1972
кий, 1972
ился, 1971
чувство@@ 1968
называ@@ 1965
Жен@@ 1964
Пи@@ 1964
m@@ 1963
гая 1963
ком. 1962
рай@@ 1961
кнул 1961
тр@@ 1960
одно 1960
вре@@ 1959
я: 1959
нил 1957
жения 1957
няя 1957
6. 1955
рах 1954
одна@@ 1954
сидел 1950
призна@@ 1950
вают 1950
сс@@ 1947
ль. 1945
e 1945
197@@ 1943
колхоз@@ 1943
а. 1941
всей 1941
стоит 1940
неу@@ 1939
место 1938
е? 1933
ехал@@ 1933
вну@@ 1933
двину@@ 1931
привы@@ 1928
знаю, 1927
разгово@@ 1926
ли? 1926
е! 1926
след@@ 1922
возь@@ 1922
посмотрел 1920
скоро 1920
о, 1919
И, 1919
немного 1919
мед@@ 1918
лов 1916
бело@@ 1914
Тут 1914
дар@@ 1913
c@@ 1910
логи@@ 1910
потер@@ 1910
един@@ 1909
видно, 1909
ву, 1909
сом 1907
це 1906
Советского 1906
ужа@@ 1904
дея@@ 1903
ходить 1900
кой@@ 1900
Ин@@ 1898
должны 1897
брига@@ 1897
объяс@@ 1897
цу 1896
дере@@ 1894
Чер@@ 1894
дней 1894
дыха@@ 1893
чай@@ 1893
ве, 1892
бал@@ 1888
ун@@ 1887
маш@@ 1886
самого 1885
ющих 1885
совет@@ 1883
вается 1883
ноч@@ 1882
услы@@ 1882
Зна@@ 1881
Мал@@ 1880
пыта@@ 1880
ых 1879
пы 1879
держа@@ 1877
2. 1876
недо@@ 1875
чали 1873
Российской 1872
насе@@ 1871
такие 1871
Гри@@ 1869
голу@@ 1867
Из@@ 1867
вать, 1866
самом 1864
Од@@ 1863
слышал@@ 1863
ее, 1862
мог@@ 1861
наши 1861
нет. 1860
сердце 1860
написа@@ 1860
тем, 1859
покры@@ 1858
испол@@ 1858
соб@@ 1857
протекает 1857
хи 1856
чик 1856
отде@@ 1856
ня, 1855
участ@@ 1854
шим 1853
мне@@ 1850
разде@@ 1849
оде@@ 1849
-то@@ 1849
пр@@ 1849
Там 1848
почему 1848
руко@@ 1848
цер@@ 1847
чи, 1846
дин@@ 1846
желез@@ 1844
наше@@ 1844
7. 1843
сказал, 1843
ей, 1843
Григорий 1841
минуту 1841
ню 1840
стара@@ 1838
поль@@ 1838
Пре@@ 1837
гда, 1836
зде@@ 1835
ется. 1835
вере@@ 1834
повер@@ 1833
крикнул 1833
отря@@ 1830
око@@ 1829
ц. 1827
огром@@ 1825
ле. 1825
11@@ 1825
крыль@@ 1825
Надо 1824
арми@@ 1824
тихо 1824
тым 1823
8. 1823
неде@@ 1823
тия 1822
се 1821
бо 1819
ман 1819
чуваш@@ 1818
своими 1816
нить 1815
ёр@@ 1813
ности, 1813
n@@ 1810
мы, 1807
занима@@ 1806
сюда 1806
Че@@ 1806
ём 1806
Через 1805
тесь 1803
начала 1801
вать. 1801
слова@@ 1800
которую 1796
ял@@ 1793
це. 1793
ру, 1793
празд@@ 1792
хом 1792
или. 1791
ев, 1789
кам@@ 1789
1. 1785
ете, 1784
продолжал 1781
нее, 1780
здоро@@ 1780
наш 1779
глазами 1779
196@@ 1777
дю@@ 1775
ответ@@ 1773
нельзя 1772
сени@@ 1772
Ло@@ 1768
Ти@@ 1767
Лен@@ 1767
ура@@ 1766
Где 1765
чить 1764
Сере@@ 1761
шно 1761
меня. 1760
пил@@ 1758
евич 1758
вай 1758
нра@@ 1755
вич@@ 1755
кам 1755
состоя@@ 1755
боя@@ 1755
нени@@ 1754
вами 1754
ции, 1753
оте@@ 1753
ю: 1752
я? 1752
вет 1751
чет 1750
вся 1749
гой 1748
бь@@ 1747
ноги 1744
ют. 1744
человека 1741
подума@@ 1741
помни@@ 1740
9. 1739
мо, 1738
таким 1738
казыва@@ 1738
ве. 1737
енно 1737
p@@ 1735
могу 1733
Кон@@ 1733
мра@@ 1731
ид@@ 1731
дит 1731
подошел 1729
располо@@ 1728
ский, 1728
вало 1726
ит@@ 1726
ть: 1725
посмотре@@ 1725
пусть 1724
сквозь 1723
дож@@ 1723
круп@@ 1722
охот@@ 1720
ж, 1719
против@@ 1718
реб@@ 1717
стой@@ 1716
како@@ 1714
гром@@ 1713
шени@@ 1713
далеко 1713
де. 1712
ъез@@ 1711
рая 1710
тех 1710
проис@@ 1709
жо@@ 1709
хоче@@ 1708
часто 1708
было, 1707
строи@@ 1707
циаль@@ 1707
клю@@ 1707
лся, 1706
Крас@@ 1706
сказать, 1706
ство, 1705
193@@ 1704
ния, 1702
Василий 1701
вила 1699
Кар@@ 1698
е… 1698
пропа@@ 1696
ин. 1695
вино@@ 1694
сторону 1692
ру 1692
хло@@ 1690
стол@@ 1690
навер@@ 1689
тся, 1688
других 1687
ночь 1687
ёт 1687
цем 1686
«С@@ 1686
одну 1686
стру@@ 1686
закон@@ 1686
мей@@ 1685
получ@@ 1685
чест@@ 1685
опреде@@ 1684
совершенно 1683
но! 1682
серди@@ 1681
него, 1680
сы, 1679
деревня 1679
Пере@@ 1679
дело@@ 1679
времени 1679
Ту@@ 1679
стой 1678
ладо@@ 1678
Боль@@ 1677
смея@@ 1676
рый 1676
товарищ 1674
— А 1673
выми 1669
это, 1669
кин 1668
кула@@ 1668
щие 1668
буд@@ 1667
же. 1665
нул@@ 1665
вери@@ 1664
зин@@ 1662
жды 1661
сделал 1661
Ему 1660
Герой 1660
семь@@ 1660
действи@@ 1659
пор 1659
забы@@ 1659
хоте@@ 1659
райо@@ 1657
мся 1655
мон@@ 1655
казался 1653
республи@@ 1650
сп@@ 1650
бой 1650
нашей 1649
л: 1648
тую 1648
сама 1648
их. 1647
жден@@ 1645
пан@@ 1645
голосо@@ 1645
гляды@@ 1644
-а@@ 1644
служ@@ 1643
дца@@ 1643
кажется, 1642
спин@@ 1642
й-@@ 1642
тор 1641
ву. 1640
лен 1639
вить 1637
другие 1637
Еще 1636
тур@@ 1635
19@@ 1635
ных, 1634
начал@@ 1632
запи@@ 1632
Великой 1631
офи@@ 1630
рован@@ 1629
ный. 1629
может, 1629
бил 1628
цов 1628
теля 1627
глаза, 1627
щих 1627
моя 1627
корот@@ 1624
города 1624
спросила 1623
лица@@ 1623
исто@@ 1623
Ха@@ 1622
нич@@ 1622
валось 1622
Шу@@ 1621
лы 1621
поко@@ 1618
особенно 1614
вот, 1614
ства, 1614
места@@ 1613
месте 1613
т? 1612
народ 1611
гри@@ 1611
g@@ 1611
я… 1609
щу@@ 1609
Отечественной 1608
ник. 1608
льные 1607
защи@@ 1607
рабочи@@ 1607
чный 1605
глядя 1604
партиза@@ 1603
Гу@@ 1601
192@@ 1601
год 1601
ние, 1600
хват@@ 1598
кло@@ 1598
большо@@ 1597
посте@@ 1597
матер@@ 1593
жели 1589
дает 1588
дивизии 1587
метро@@ 1586
жар@@ 1586
мимо 1586
роди@@ 1585
объ@@ 1584
четвер@@ 1584
До 1583
тер 1579
тов@@ 1579
ов@@ 1579
Сер@@ 1579
мяг@@ 1578
зя@@ 1578
зы 1577
ней, 1577
пришел 1577
чала 1573
готов@@ 1573
вы. 1573
лая 1573
бы. 1572
стри@@ 1571
рукой 1571
она. 1571
ска 1570
сре@@ 1567
во. 1567
но: 1566
шеп@@ 1566
й… 1565
части 1565
знал, 1565
рей@@ 1564
лад@@ 1563
вай@@ 1562
поднял 1562
зывал 1562
ка! 1559
домо@@ 1559
думал@@ 1558
коне@@ 1556
бабу@@ 1556
вая, 1556
сю@@ 1554
ции. 1552
должно 1552
пусты@@ 1552
мож@@ 1551
дая 1550
тыми 1550
какие 1549
иле@@ 1549
пред 1548
цами 1548
жу, 1546
дом. 1545
шед@@ 1545
вшей 1544
самой 1543
обре@@ 1542
ул@@ 1541
щая 1540
ческого 1540
нова@@ 1540
казал@@ 1540
бежал 1540
тов, 1539
стояли 1539
теб@@ 1537
кроме 1536
195@@ 1536
ческой 1535
сапо@@ 1534
уча@@ 1529
ью@@ 1527
ками. 1526
таль@@ 1525
сь? 1525
измен@@ 1525
знакомы@@ 1524
спра@@ 1524
сила 1524
уш@@ 1524
ностью 1523
бое@@ 1522
тори@@ 1521
ери@@ 1521
може@@ 1521
показа@@ 1521
хо 1520
Для 1520
Пе@@ 1519
жили 1517
ился. 1516
нога@@ 1516
руба@@ 1515
дала 1515
землю 1515
ха, 1514
тами 1512
б, 1512
колен@@ 1511
говорила 1511
I@@ 1510
решил 1509
-то, 1508
Почему 1506
ша. 1505
сь! 1505
лян@@ 1504
з, 1503
Владимир 1501
чей 1501
сна@@ 1500
какой-то 1499
лица 1498
рос@@ 1498
вна 1498
16@@ 1496
Сан@@ 1496
парти@@ 1496
ре. 1496
мной 1496
строй@@ 1495
государствен@@ 1495
стреля@@ 1495
чку 1494
тихо@@ 1494
лил 1494
ст, 1494
Коро@@ 1493
опа@@ 1492
вшиеся 1492
сли@@ 1492
ставля@@ 1491
сов 1491
гон@@ 1488
поля@@ 1486
тра 1486
носи@@ 1486
счасть@@ 1485
молча 1484
как-то 1484
улыба@@ 1483
заво@@ 1482
созна@@ 1481
подумал 1481
команди@@ 1480
гнул 1480
ход 1479
потре@@ 1479
те? 1478
коман@@ 1476
стно 1476
было. 1476
жел@@ 1475
выпол@@ 1475
мало 1473
сты 1473
Бер@@ 1473
ческий 1472
мои 1472
ба, 1472
ено@@ 1470
шку 1470
тю@@ 1469
очере@@ 1469
вич. 1469
разо@@ 1469
Григори@@ 1469
жен 1468
глаза@@ 1468
пал@@ 1468
100@@ 1467
тё@@ 1466
над@@ 1465
ним, 1465
ступи@@ 1465
общ@@ 1465
разви@@ 1464
котором 1463
войны, 1463
будем 1463
сор@@ 1462
дов@@ 1459
своем 1459
бр@@ 1459
мало@@ 1459
белы@@ 1459
часть 1456
нау@@ 1456
йский 1456
ня. 1455
Воз@@ 1454
мя 1453
возвра@@ 1452
Кор@@ 1452
15@@ 1451
Здесь 1451
темно@@ 1450
вари@@ 1450
дав@@ 1450
Союза 1448
ние. 1447
мас@@ 1447
рта@@ 1447
разговари@@ 1446
ным. 1445
четы@@ 1445
цию 1444
людей, 1444
юсь 1441
делать 1441
тив 1440
лес@@ 1440
ческих 1439
жествен@@ 1438
ились, 1438
наход@@ 1438
ющ@@ 1436
сли 1435
слово 1435
ист@@ 1433
поряд@@ 1433
Бог 1433
земле 1432
лежа@@ 1431
тебя, 1431
лись, 1430
гост@@ 1429
Андрей 1429
едва 1428
сильно 1427
ёл 1427
почувство@@ 1427
все-таки 1427
священ@@ 1427
ность@@ 1427
пов@@ 1426
прият@@ 1426
Тво@@ 1426
Жи@@ 1425
мел@@ 1425
ния. 1424
таких 1424
могли 1424
Разве 1421
Один 1421
офицер@@ 1420
гов 1420
Сейчас 1420
Сто@@ 1416
каз@@ 1416
два@@ 1416
терпе@@ 1415
ново@@ 1415
т… 1415
ень 1414
самый 1414
скло@@ 1413
Ну@@ 1413
пад@@ 1412
сред@@ 1412
ч. 1411
S@@ 1411
нача@@ 1411
Дж@@ 1410
моро@@ 1409
отли@@ 1409
четыре 1409
тако@@ 1409
чит 1409
отвеча@@ 1407
казалось 1406
стороны 1406
ым 1405
№ 1405
еся 1405
жи, 1404
сей@@ 1403
воды 1403
й? 1402
з. 1402
ям 1402
пору@@ 1400
слушал@@ 1400
ину 1399
руб@@ 1399
Ио@@ 1397
хов@@ 1397
тотчас 1396
района 1395
меч@@ 1395
Однако 1393
дела 1393
громко 1392
мира@@ 1391
тельный 1391
нес 1390
музы@@ 1390
ства. 1389
Сы@@ 1388
ником 1387
созда@@ 1387
евна 1387
Ге@@ 1385
те! 1384
сок 1383
иде@@ 1383
мом 1383
чувству@@ 1382
вес@@ 1381
вшийся 1381
пат@@ 1381
ого@@ 1380
14@@ 1380
мерт@@ 1380
тран@@ 1380
отда@@ 1379
наблю@@ 1379
укра@@ 1378
Степа@@ 1378
ках, 1377
зачем 1377
м; 1375
собствен@@ 1375
необходи@@ 1375
которым 1371
приход@@ 1371
стави@@ 1370
Ша@@ 1370
стояла 1369
пру@@ 1369
ступил 1369
поез@@ 1368
A@@ 1368
зр@@ 1367
кораб@@ 1366
пля@@ 1366
довольно 1366
боле@@ 1366
кал 1365
тельно, 1365
лко@@ 1365
пошли 1365
Ди@@ 1363
пь@@ 1363
разве 1362
Спа@@ 1362
ру. 1362
прежде 1360
кнула 1359
цело@@ 1357
надца@@ 1357
бла@@ 1357
такая 1357
дни 1356
ещ@@ 1356
из-под 1356
13@@ 1355
Анто@@ 1355
нов. 1354
руками 1354
ница 1354
ав@@ 1353
жена 1353
дорож@@ 1352
щей 1352
движени@@ 1352
рат@@ 1351
немно@@ 1349
плот@@ 1348
моей 1348
лся. 1348
останови@@ 1348
ном, 1347
туда 1346
ван 1346
казал 1346
чи. 1345
сед@@ 1345
ме, 1343
жан@@ 1343
Фран@@ 1343
Ри@@ 1342
заве@@ 1342
области 1342
пут@@ 1341
b@@ 1340
сов@@ 1340
звез@@ 1339
гер@@ 1338
отвечал 1338
вниз@@ 1338
ности. 1338
каки@@ 1338
нова 1338
ешь? 1337
этому 1337
шь. 1337
двадцать 1336
кто-то 1334
отца 1334
Рас@@ 1334
вспомни@@ 1334
Вол@@ 1334
года. 1333
одеж@@ 1333
ней. 1333
дцать 1332
нашего 1331
идет 1330
свобо@@ 1329
Бело@@ 1328
любов@@ 1328
глаза. 1328
ча, 1327
тит 1327
Чего 1326
це, 1326
h@@ 1325
назна@@ 1324
чис@@ 1324
Сол@@ 1323
скими 1322
Чуваши@@ 1322
ань@@ 1320
принима@@ 1319
работ@@ 1317
молоды@@ 1317
конце 1317
лей@@ 1316
броса@@ 1314
] 1314
тое 1313
оружи@@ 1313
мило@@ 1313
дно, 1312
вич, 1312
семь 1312
нас@@ 1311
жет 1310
рые 1310
Во 1310
шан@@ 1310
ного, 1309
лись. 1307
жд@@ 1306
тельной 1305
треть@@ 1305
меха@@ 1305
нюю 1304
молодо@@ 1304
фронта. 1303
жерт@@ 1303
an@@ 1303
тов. 1303
сился 1302
судь@@ 1302
надеж@@ 1302
револю@@ 1301
Маль@@ 1301
выр@@ 1301
нув 1301
идти 1300
головой 1300
дей 1300
левому 1300
спор@@ 1298
выстре@@ 1296
геро@@ 1296
тел 1295
Фо@@ 1295
глядел 1294
си 1293
заметил 1293
север@@ 1293
вече@@ 1293
советский 1292
ши, 1292
рассказыва@@ 1292
ласко@@ 1292
увер@@ 1291
C@@ 1290
Все@@ 1290
нару@@ 1289
тся. 1288
шее 1287
такого 1287
щего 1286
стать@@ 1286
ехали 1285
слишком 1285
лини@@ 1285
могут 1285
ющим 1284
гать 1283
одо@@ 1283
него. 1283
ай@@ 1282
бря@@ 1281
доволь@@ 1281
er@@ 1281
смотре@@ 1279
равно 1279
именно 1279
уса@@ 1276
сь: 1275
глаз 1275
за. 1275
При 1275
голову, 1274
пунк@@ 1274
пош@@ 1273
гали 1273
дверь 1272
день, 1272
стару@@ 1271
серьез@@ 1271
прекрас@@ 1270
нар@@ 1270
твор@@ 1270
ника, 1270
живо@@ 1268
Может 1268
йского 1267
пил 1267
говорили 1267
которы@@ 1267
вода 1267
гоня@@ 1267
земли 1267
миро@@ 1266
ющего 1266
наших 1266
Каж@@ 1266
имени 1265
тобой 1264
ры 1264
Совет@@ 1263
л? 1263
крепко 1262
стом 1261
авто@@ 1260
мгнов@@ 1259
небо@@ 1257
хол@@ 1257
сосед@@ 1257
спрашива@@ 1256
позво@@ 1255
подоб@@ 1255
рев@@ 1255
вели 1254
сделать 1254
тыся@@ 1254
вый@@ 1253
коль@@ 1253
второй 1253
кара@@ 1253
зь@@ 1252
Пой@@ 1252
затем 1252
жизн@@ 1251
пустил 1251
Володя 1251
участник 1250
руш@@ 1249
чиво 1249
обещ@@ 1249
еха@@ 1249
сы. 1249
англи@@ 1248
вас, 1248
чные 1247
цы. 1247
мужи@@ 1247
ство. 1247
уж@@ 1246
Пра@@ 1246
хочу 1246
знако@@ 1246
руки, 1245
ген@@ 1245
тебе, 1244
искус@@ 1244
сына 1244
хран@@ 1243
хри@@ 1243
вне@@ 1242
простран@@ 1242
нее. 1241
нуть 1240
эк@@ 1240
думал, 1240
ге, 1239
Гор@@ 1239
ук@@ 1238
шил 1238
неж@@ 1238
спро@@ 1238
завтра 1237
замеча@@ 1237
пришлось 1237
прибли@@ 1237
приста@@ 1237
ющей 1236
том. 1236
ним. 1235
тысяч 1235
газе@@ 1235
 — @@ 1235
правиль@@ 1234
Дол@@ 1233
тет@@ 1233
доба@@ 1232
сня@@ 1232
лежал 1232
себя, 1231
способ@@ 1230
женный 1229
Гла@@ 1229
водного 1229
ува@@ 1229
нас, 1228
т-@@ 1228
произо@@ 1228
человек. 1228
ба. 1228
s 1228
помн@@ 1227
вест@@ 1227
ведени@@ 1227
B@@ 1226
интерес@@ 1226
руках 1226
нер@@ 1225
имя 1225
Значит, 1225
ю! 1224
клады@@ 1223
к! 1222
осве@@ 1222
филь@@ 1222
карт@@ 1221
иногда 1221
Иванович 1221
мень@@ 1221
ха. 1220
спокойно 1220
какая 1219
испу@@ 1218
жая 1217
траль@@ 1217
шут@@ 1217
лы, 1216
является 1216
лую 1216
них, 1215
хорошо@@ 1214
скоро@@ 1214
бить 1214
столько 1214
Васили@@ 1213
двига@@ 1213
самое 1213
кило@@ 1213
вой, 1212
зал 1212
сот@@ 1212
учени@@ 1210
капитан 1210
тах 1210
гуля@@ 1210
ден 1209
доме 1208
стек@@ 1208
за, 1206
назад 1205
Александр 1205
впере@@ 1204
мыш@@ 1203
пал 1202
глуб@@ 1201
говорит, 1201
Павел 1200
кли@@ 1200
ню@@ 1197
ф 1196
могла 1195
кая, 1194
счастли@@ 1193
баталь@@ 1193
Вс@@ 1193
пить 1192
ину@@ 1192
соста@@ 1192
Ско@@ 1192
бил@@ 1190
смеш@@ 1189
городе 1187
правому 1186
вместо 1186
плат@@ 1185
шел, 1185
своему 1185
ими 1185
сар@@ 1185
ника. 1185
чу, 1184
основ@@ 1183
и: 1183
нием 1182
ряд@@ 1182
эти@@ 1182
мой, 1182
чере@@ 1181
лице 1180
чего@@ 1179
либо 1179
одном 1178
ее. 1177
— Я 1177
щим 1177
танко@@ 1177
щее 1176
наве@@ 1176
напря@@ 1176
чо 1175
наконец 1175
ктор 1174
восста@@ 1173
корпу@@ 1173
человека, 1173
дев@@ 1173
ехать 1172
села 1171
тья 1171
года, 1171
клу@@ 1171
моря@@ 1171
знал 1170
вшихся 1170
ей. 1170
крова@@ 1170
ением 1169
кана@@ 1167
юр@@ 1167
моего 1166
вмест@@ 1165
Саша 1165
дите 1164
государ@@ 1164
будешь 1163
броси@@ 1162
заклю@@ 1160
вшая 1160
собы@@ 1160
дия 1160
правился 1160
шап@@ 1159
успел 1158
спря@@ 1158
строитель@@ 1157
представля@@ 1156
скор@@ 1156
сооб@@ 1156
ились. 1155
люди, 1155
крестьян@@ 1155
бросил 1155
Арми@@ 1154
ата@@ 1154
дости@@ 1153
Пусть 1153
газ@@ 1152
лам@@ 1152
сай@@ 1152
блу@@ 1152
каш@@ 1151
нос@@ 1150
войны 1149
лу, 1149
одним 1149
поспе@@ 1149
рук 1148
наш@@ 1147
случ@@ 1147
сва@@ 1145
преду@@ 1145
умер@@ 1144
драв@@ 1144
авиа@@ 1143
лением 1143
10. 1141
!@@ 1139
шка. 1139
хнул 1139
стрелковой 1139
мур@@ 1139
штур@@ 1138
жало@@ 1138
тех@@ 1137
кле@@ 1137
Воро@@ 1137
мент 1136
командир 1136
пригла@@ 1134
нови@@ 1133
стые 1131
чий 1131
ю… 1131
Рабо@@ 1130
понят@@ 1130
когда@@ 1130
цев, 1129
лест@@ 1129
хво@@ 1129
ное. 1128
лым 1128
действительно 1128
равно@@ 1127
Конечно, 1127
ощу@@ 1126
пора@@ 1125
Вдруг 1125
кабин@@ 1125
т: 1124
француз@@ 1124
град@@ 1123
вшим 1123
ников, 1123
плака@@ 1122
тали 1121
v@@ 1121
ква@@ 1120
лел 1120
десять 1120
ческие 1119
друж@@ 1119
Ильи@@ 1118
десят 1118
осен@@ 1117
шать 1117
но… 1116
Сло@@ 1116
дивизи@@ 1116
значит, 1116
тиш@@ 1114
кол@@ 1112
ребята 1112
ходя 1112
быстро@@ 1112
маль@@ 1112
ваясь, 1112
дене@@ 1111
тора 1111
иг@@ 1111
физи@@ 1110
ов 1110
ять 1110
рази@@ 1110
хода 1110
тек@@ 1110
молодой 1109
обер@@ 1109
второ@@ 1109
теп@@ 1109
хочет 1108
ск 1108
май@@ 1108
телем 1107
е; 1107
село 1107
я — 1106
-ни@@ 1106
M@@ 1106
борь@@ 1105
Волод@@ 1105
вдо@@ 1105
друз@@ 1105
вошел 1105
зали@@ 1104
девя@@ 1104
представи@@ 1103
часа 1103
сков@@ 1102
волно@@ 1102
тобо@@ 1102
девоч@@ 1102
расс@@ 1101
пира@@ 1100
памя@@ 1100
лер@@ 1100
лён@@ 1100
мни@@ 1099
проси@@ 1099
пара@@ 1099
пиро@@ 1098
Ор@@ 1098
время, 1098
юсь, 1097
обяза@@ 1097
край@@ 1096
нович 1096
деле 1096
ные. 1095
пое@@ 1095
разно@@ 1094
осно@@ 1094
кух@@ 1093
Слу@@ 1092
Росси@@ 1092
менно 1092
2000@@ 1091
ницы 1091
пример@@ 1091
эн@@ 1090
лу. 1090
переда@@ 1090
напи@@ 1090
как@@ 1089
сь… 1089
Сте@@ 1089
тес@@ 1089
илось, 1088
11. 1088
мини@@ 1088
людя@@ 1088
легко 1087
тяжело 1087
лей 1087
ки! 1087
дел 1087
час 1087
дву@@ 1087
раст@@ 1086
тки 1086
кля@@ 1086
ст. 1086
позна@@ 1085
Кры@@ 1085
ственной 1084
председа@@ 1083
отча@@ 1083
цо 1083
находи@@ 1083
ность, 1083
звер@@ 1082
нах 1082
благодар@@ 1082
кня@@ 1081
составляет 1081
Моло@@ 1081
реги@@ 1080
район@@ 1080
Оста@@ 1080
воду 1079
Зачем 1079
но? 1078
где-то 1078
уверен@@ 1078
Федера@@ 1078
освобо@@ 1078
тел@@ 1078
кие, 1078
нии, 1077
да! 1076
господ@@ 1075
дь, 1074
мах@@ 1074
зво@@ 1073
плохо@@ 1073
приба@@ 1072
напо@@ 1072
(194@@ 1071
генера@@ 1071
ге. 1070
се, 1070
мою 1070
дете@@ 1070
Тан@@ 1070
накло@@ 1069
дам 1069
ждал@@ 1069
кти@@ 1067
отно@@ 1067
проек@@ 1067
кали 1066
ору@@ 1066
оборо@@ 1065
ходила 1065
ща 1065
никак 1065
Ав@@ 1065
гряз@@ 1064
дога@@ 1064
стый 1064
дома, 1063
стрелкового 1063
Даже 1062
ства@@ 1062
ной. 1062
мастер@@ 1061
били 1061
:@@ 1061
ях, 1060
обраща@@ 1060
ствие 1060
Чебок@@ 1060
вспы@@ 1059
стано@@ 1059
нельз@@ 1057
дело, 1057
пути 1057
юще@@ 1056
гвардейской 1056
вилось 1056
шую 1056
успоко@@ 1056
су, 1056
зади 1055
ночью 1055
гря@@ 1055
поднялся 1055
мана 1054
зывать 1054
шими 1054
цев. 1054
Куда 1054
жной 1054
хорошо, 1053
рубле@@ 1053
Гра@@ 1053
толь@@ 1052
лой 1051
дальше 1051
12. 1051
сосе@@ 1051
глазах 1051
мов 1050
вероят@@ 1050
компа@@ 1050
Зем@@ 1050
ую 1050
старший 1049
хе 1049
им, 1049
труб@@ 1049
ля, 1048
тие 1048
ранен@@ 1048
тихонь@@ 1047
седа@@ 1047
кварти@@ 1047
места 1047
тель, 1046
теа@@ 1046
выз@@ 1046
пута@@ 1046
сол@@ 1045
щи 1044
поверну@@ 1044
закричал 1044
напол@@ 1044
вался, 1044
часо@@ 1043
ме. 1043
старик 1043
Каза@@ 1042
жены 1041
ения, 1040
фер@@ 1040
лить 1039
такую 1039
положени@@ 1039
зда@@ 1038
чка, 1038
тесь, 1037
путеше@@ 1037
болез@@ 1037
противо@@ 1036
дороге 1035
держал 1035
что-нибудь 1035
свете 1035
сидели 1034
себе, 1034
вовсе 1033
Север@@ 1033
которо@@ 1033
бель@@ 1033
тал@@ 1032
Под 1032
могу@@ 1032
ья, 1032
пого@@ 1031
чу. 1031
ставить 1031
Гово@@ 1030
гает 1030
го-@@ 1030
получа@@ 1030
Может, 1029
сыно@@ 1029
соедин@@ 1029
понял, 1029
бормо@@ 1029
приез@@ 1029
х; 1029
опера@@ 1028
окон@@ 1028
ин 1028
орга@@ 1027
говорит: 1026
гие 1025
ходят 1025
Ча@@ 1025
секун@@ 1025
a 1025
ница@@ 1025
Воло@@ 1024
ству 1024
предло@@ 1023
зри@@ 1023
проговорил 1023
хоти@@ 1023
лете@@ 1023
кова 1023
дым 1022
всему 1022
совер@@ 1022
Ван@@ 1022
пья@@ 1022
увиди@@ 1021
работы 1021
чки, 1021
одино@@ 1020
порт@@ 1019
уез@@ 1019
лось, 1019
ил: 1019
дии 1018
поста@@ 1018
бю@@ 1016
й: 1016
13. 1016
зави@@ 1016
жай@@ 1015
Голо@@ 1014
чисто@@ 1014
выше 1014
товари@@ 1014
раньше 1013
оба 1013
выш@@ 1013
живе@@ 1012
зай@@ 1012
место@@ 1011
бом@@ 1011
лых 1010
кури@@ 1010
суд@@ 1009
ваго@@ 1008
дри@@ 1008
T@@ 1007
хла@@ 1007
Чуваш@@ 1006
казались 1006
крест@@ 1005
журна@@ 1005
начали 1005
X@@ 1005
ви, 1004
школ@@ 1004
пожал@@ 1004
ёт@@ 1003
науч@@ 1003
беспо@@ 1003
ники, 1003
ча. 1002
вздохну@@ 1002
держал@@ 1002
Мари@@ 1001
гвардии 1001
жит 1001
бу, 1001
закри@@ 1000
лев@@ 1000
лок 1000
лиш@@ 1000
ром, 1000
вто@@ 999
она@@ 998
организа@@ 998
станови@@ 998
шля@@ 998
Констан@@ 998
завтра@@ 998
Вели@@ 998
приш@@ 998
час, 997
раскры@@ 997
Герма@@ 997
ради@@ 997
гда@@ 996
аре@@ 996
Сове@@ 995
тала 995
тельного 995
вдоль 995
удиви@@ 995
пет@@ 994
здесь, 994
требо@@ 994
ля. 994
тил@@ 993
вам, 993
американ@@ 993
Фе@@ 992
дядя 992
жизнь@@ 992
тать 992
ат@@ 992
каждо@@ 992
То 992
знаешь, 991
минут 991
Меня 991
растер@@ 991
блед@@ 991
оконча@@ 991
воск@@ 991
СССР 990
Ленин@@ 990
ений 990
скорее 989
осторожно 989
к-@@ 988
баш@@ 988
руку, 988
Дру@@ 988
годы 987
коми@@ 987
семей@@ 987
Владими@@ 986
царь 986
матро@@ 986
уто@@ 986
Отец 985
огля@@ 985
кое-@@ 985
нимал@@ 984
нам, 984
хвата@@ 984
я; 984
дель@@ 984
приве@@ 984
30@@ 983
получи@@ 983
щение 982
декабря 982
Гал@@ 982
вздо@@ 982
постоян@@ 981
Род@@ 980
Что@@ 980
Ефи@@ 980
осталь@@ 980
сно 980
хохо@@ 979
долж@@ 978
столо@@ 978
чего, 978
постав@@ 978
ом, 978
откуда 978
шки, 977
любо@@ 977
купа@@ 977
ось, 976
20 975
добра@@ 975
артиллери@@ 975
останавли@@ 975
Красно@@ 975
Хоро@@ 975
нется 974
Израил@@ 973
мого 973
in@@ 973
старый 973
чие 972
твой 972
Сво@@ 972
какой@@ 972
чного 970
удовольстви@@ 970
Василье@@ 970
ственно 969
ан 969
разговор 968
площа@@ 968
мят@@ 968
пе 968
ств@@ 968
Одна@@ 968
гин@@ 966
жё@@ 966
впол@@ 966
Их 966
спроси@@ 965
слав@@ 965
клад@@ 965
фон@@ 965
Украин@@ 965
Сем@@ 964
надцать 964
России 964
14. 963
колхо@@ 963
прика@@ 962
отдель@@ 962
Пред@@ 962
него@@ 962
объя@@ 962
б. 962
Ни 961
женщин@@ 960
особен@@ 960
язык 960
спуст@@ 960
P@@ 960
м-@@ 959
живот@@ 959
несколь@@ 958
гвардейского 958
раз, 958
пита@@ 957
дело. 957
жив 957
удив@@ 956
пришли 955
пуш@@ 955
росси@@ 955
Наконец 955
сни@@ 955
Вик@@ 954
ост@@ 954
ряд 954
печа@@ 953
чных 953
потому, 953
Федо@@ 953
кир@@ 953
en@@ 952
жесто@@ 952
клас@@ 951
нож@@ 951
свет 951
большие 951
цеп@@ 950
сначала 950
новые 950
худо@@ 948
рядо@@ 947
обес@@ 947
смотреть 947
скольз@@ 947
тара@@ 947
Макси@@ 945
работать 945
докто@@ 945
прочем, 944
Ген@@ 944
думы@@ 944
реди 943
жале@@ 943
жиз@@ 943
Фа@@ 943
покло@@ 943
гео@@ 941
полага@@ 941
воздуш@@ 941
куп@@ 941
ворачи@@ 941
наша 941
жий 941
зор@@ 941
видел, 940
должна 940
мую 939
выбра@@ 939
вут 938
головы 938
ева 937
дами 937
15. 937
кино@@ 937
воскликнул 936
Мать 936
ного@@ 936
любопыт@@ 935
вилась 935
ческая 934
холо@@ 934
дов, 933
думаю, 933
Кру@@ 933
лейтенант 933
17. 933
нач@@ 933
никого 932
свобод@@ 932
Иерусали@@ 932
воч@@ 932
трудно 932
сих 931
рова@@ 931
пола@@ 931
чения 931
ленные 929
положил 929
вал. 928
Неужели 928
чем-то 928
жа, 928
(, 928
прокля@@ 928
чался 928
кая@@ 928
х! 928
вой. 928
постро@@ 927
слова, 927
Сколько 927
16. 927
Вал@@ 927
эта@@ 926
глазами, 926
Этот 925
какая@@ 925
хе@@ 925
хар@@ 924
губер@@ 924
ню, 924
су. 923
они, 923
госпо@@ 923
обрадо@@ 923
ями, 923
член@@ 922
прино@@ 922
вых, 922
неподви@@ 922
дешь 922
ветер@@ 921
остался 921
тельные 921
й; 921
рок 921
Но, 920
пул@@ 920
плать@@ 920
порядо@@ 920
учитель@@ 919
дура@@ 919
нял 919
мет 919
себя. 918
пин@@ 918
сра@@ 918
приказал 917
зывая 917
руку. 917
Вар@@ 917
вперед 917
знает, 917
книж@@ 917
лит@@ 916
сегод@@ 916
нию 916
Очень 916
слово@@ 916
детей 915
какое 915
вым, 915
жила 915
часов 915
су 914
ров, 914
Щ@@ 914
фу@@ 914
культур@@ 913
лет, 913
лена 913
утвер@@ 913
кала@@ 913
бу. 912
1-го 911
ю? 911
соз@@ 911
прой@@ 911
Федерации. 910
чение 910
ски, 910
граф@@ 909
стои@@ 909
шине@@ 909
А. 908
заста@@ 908
ской, 908
здоров@@ 908
мы. 908
сили 907
кого@@ 907
ствовал 907
000@@ 907
цвет@@ 906
чили 906
взглянул 906
публи@@ 906
кончи@@ 906
йской 905
пошла 905
территории 905
хан@@ 905
услови@@ 905
задум@@ 904
дина@@ 903
тий 903
говорил, 903
Ах, 903
матери@@ 903
бежа@@ 902
ев. 902
рить 902
Фро@@ 902
следова@@ 902
винова@@ 901
ливо@@ 901
деж@@ 901
говари@@ 900
держать 900
пу 900
работу 899
ян 899
Чтобы 899
всеми 898
ши. 898
сади@@ 898
домой 898
ет: 898
деревян@@ 898
млад@@ 898
хал 898
самых 897
хлоп@@ 896
АО. 896
гори@@ 896
лейтенан@@ 896
фамили@@ 895
ваше 895
ожида@@ 895
получил 894
последний 893
разби@@ 893
жизни. 893
50@@ 892
первого 892
Оль@@ 892
куда-то 891
ников. 891
пять@@ 891
диа@@ 891
10 891
руки. 890
силы 890
Эх, 890
Ком@@ 890
докумен@@ 889
Иу@@ 889
Иль@@ 889
непре@@ 889
нин@@ 889
чек 888
женные 888
Давыдо@@ 888
шер@@ 888
ными, 888
сторон@@ 888
ждения 888
гроз@@ 887
видно 887
привя@@ 887
лы. 887
on@@ 887
людь@@ 887
че, 886
греб@@ 886
вышли 885
скаже@@ 885
Кал@@ 885
Зо@@ 885
чем@@ 884
пози@@ 884
области. 884
шел. 884
ная. 884
проводи@@ 884
тка 884
вый, 884
соло@@ 883
ваются 883
Уже 883
Мака@@ 883
Евро@@ 882
лыми 882
доч@@ 882
воспо@@ 882
" 882
встал 881
18. 881
бе. 880
встреча@@ 880
дую 880
А. @@ 879
уй, 879
деревне 879
останов@@ 878
сыла@@ 878
ен, 878
любил 878
работал 877
обо 877
Товари@@ 877
лены 877
ствии 877
йте, 876
Или 876
ном. 876
стов 875
территори@@ 875
ственный 875
Пол@@ 875
нулась 874
гда 874
сухо@@ 874
лежит 873
радост@@ 873
вон 873
f@@ 873
говорю 873
зне@@ 873
горь@@ 872
ить 872
грани@@ 872
зая@@ 872
трудом 871
зы, 871
зь 871
лет. 871
красне@@ 871
мощ@@ 871
поче@@ 870
нии. 870
арти@@ 870
обыкновен@@ 870
удар@@ 869
Смо@@ 869
лле@@ 869
мино@@ 869
сообщ@@ 869
вспомина@@ 869
землю, 869
голова 869
крепо@@ 869
крикну@@ 869
головой. 868
оке@@ 868
отношени@@ 868
националь@@ 868
слов 868
тей@@ 868
прикры@@ 867
Израиле@@ 867
руководи@@ 867
жный 867
пей@@ 867
служи@@ 867
ске 867
ющая 867
ми: 866
чество 865
дома. 865
]@@ 865
свин@@ 864
проз@@ 863
тали@@ 863
возра@@ 863
тому, 863
наза@@ 862
Ху@@ 862
?! 861
тюрь@@ 861
опасно@@ 861
рес@@ 861
рыз@@ 861
вель@@ 861
рассе@@ 860
досто@@ 860
суро@@ 860
Его@@ 860
дево@@ 860
10300@@ 860
Я, 860
перед@@ 859
мер 859
матери 859
было@@ 859
путь 858
шем 858
остановился 858
вод 858
тилась 858
шить 857
губа@@ 857
погиб@@ 856
множе@@ 856
дур@@ 856
сут@@ 855
станов@@ 855
Тимофе@@ 854
вроде 854
коридо@@ 854
торопливо 854
уче@@ 854
внимательно 854
наи@@ 853
шев@@ 853
уви@@ 853
n 853
щения 853
охо@@ 852
огляды@@ 852
заговорил 852
чё@@ 852
ar@@ 852
устро@@ 851
ир@@ 851
рым 851
дый 851
зар@@ 850
фаши@@ 850
Перед 850
непо@@ 849
разу@@ 849
взгляд 849
секретар@@ 849
Аль@@ 849
дах 849
Челове@@ 849
чка@@ 849
раска@@ 848
Нем@@ 848
тился 848
Пока 848
ональ@@ 848
большую 848
ение, 848
знает 848
теперь, 848
Ше@@ 847
., 847
ближе 847
тельным 847
врат@@ 846
новый 846
винтов@@ 846
земле@@ 845
м-то 845
ет… 844
наконец, 844
розо@@ 844
бир@@ 844
хот@@ 844
истреби@@ 844
«О@@ 844
пусто@@ 843
принад@@ 843
or@@ 843
дет, 843
смотрели 843
каждого 843
сум@@ 843
пон@@ 842
бассей@@ 842
чным 842
Вась@@ 841
вспомн@@ 841
яла@@ 841
удал@@ 841
ветер 841
лю, 841
взять 841
сон@@ 840
многие 840
читы@@ 840
посту@@ 840
Матве@@ 840
половин@@ 840
иск@@ 839
чила 839
вича 838
жду@@ 838
тяги@@ 838
худож@@ 838
блю@@ 838
шу, 837
ждал 837
каса@@ 837
сцен@@ 837
Ман@@ 837
посла@@ 837
ность. 837
ет? 836
первые 836
видеть 836
возвраща@@ 836
ского, 836
командовал 835
тепло@@ 835
вчера 835
прода@@ 835
провер@@ 835
нев@@ 834
первой 834
Ничего 834
зывали 834
внезап@@ 833
лок@@ 833
шесть 833
D@@ 833
зависи@@ 833
лицо, 832
ваши 832
нена@@ 831
Зе@@ 831
показыва@@ 831
голову. 831
женщина 831
Заха@@ 831
хватил 830
всё@@ 830
экономи@@ 830
Василь@@ 830
фло@@ 830
ении 829
февра@@ 829
ет! 829
80@@ 829
— По@@ 828
утром 827
скоре@@ 827
покой@@ 827
людей. 827
случае 827
авиацион@@ 827
дай 827
красо@@ 827
Прав@@ 826
скла@@ 826
развед@@ 826
лагер@@ 826
ответила 826
шек 826
стря@@ 825
Ребята 825
поэ@@ 825
солнце 825
выле@@ 824
дрогну@@ 824
сун@@ 824
раза 824
вышла 824
датель@@ 824
большая 823
глазами. 823
где@@ 823
привет@@ 823
всякий 823
20. 822
ств 822
чики 822
Таня 822
интересо@@ 822
муниципаль@@ 822
соответ@@ 822
Сегодня 821
поэтому 821
жизни, 821
чная 820
ён 820
настро@@ 820
льз@@ 819
лесо@@ 819
нин 819
лета@@ 819
приходи@@ 819
печат@@ 818
пом@@ 818
преми@@ 818
шёл 818
Ильич 818
поле 817
Пан@@ 817
наступ@@ 817
19. 817
ху, 817
ждать 816
проти@@ 816
заметно 816
стая 816
ею 815
отвер@@ 815
ню. 815
русского 814
им. 814
неприят@@ 814
Ты, 814
Государ@@ 814
Бла@@ 814
другим 814
Сам 813
узнал 813
«А@@ 813
жду 812
кричал 812
ноги, 812
учен@@ 812
боло@@ 811
вали, 811
весело 811
канто@@ 811
шень@@ 811
ю; 810
неожиданно 810
гли 810
кора@@ 810
бросился 810
дцати 809
ко-@@ 809
пример, 808
стол 808
Большо@@ 808
Дя@@ 808
будет. 808
ью, 808
мне. 807
рами 807
выда@@ 807
Было 807
хов 807
300@@ 807
результа@@ 806
улице 806
разли@@ 806
есть, 806
Николаевич 806
Люди 806
Ники@@ 806
разда@@ 805
ему. 805
вому 805
юно@@ 805
станиц@@ 805
другого 804
послышал@@ 804
Тро@@ 804
топ@@ 804
ночь@@ 803
коли@@ 803
Офи@@ 803
лесу 802
ящи@@ 802
трех 801
имеет 801
ях. 801
махи@@ 800
Поэтому 800
́н@@ 800
читал 800
смерти 800
самые 800
нули 800
голосом 799
вайте 799
Петрович 799
сса@@ 799
деятель@@ 798
лах 798
неожидан@@ 798
отцо@@ 798
протя@@ 797
ми; 797
участи@@ 797
Рус@@ 797
рва@@ 797
25@@ 796
схватил 796
стр@@ 796
ках. 796
Би@@ 796
гом, 796
шал 795
ную, 795
почему-то 795
х: 795
майо@@ 795
Гро@@ 795
фин@@ 794
испо@@ 794
звон@@ 794
нами, 794
запла@@ 794
отправ@@ 794
карто@@ 794
190@@ 794
Михаил 793
верно, 793
крат@@ 793
«П@@ 793
(ГИ@@ 793
да? 793
комсомо@@ 793
сидела 793
Ани@@ 793
рассу@@ 793
мысли 793
самым 792
Ханты-Мансий@@ 792
пожалуй@@ 792
услышал 792
впервые 791
км 791
русский 791
шение 790
«По@@ 790
изученности 790
плеча@@ 790
R@@ 790
остановил@@ 789
гидрологической 789
л! 789
спросил: 789
V@@ 789
двена@@ 788
па, 788
разил 788
Дмитри@@ 788
партизан@@ 788
реч@@ 788
присут@@ 787
писал 787
ску 787
осторож@@ 787
Ок@@ 786
вым. 786
другую 785
большим 784
рисо@@ 784
чать 783
Цен@@ 783
каче@@ 783
п, 783
фун@@ 782
Уж 782
право@@ 782
сара@@ 782
гов@@ 782
комнате 782
кин, 782
дон@@ 781
многих 781
января 781
осмо@@ 781
Еги@@ 781
Виктор 781
L@@ 781
Иванов@@ 781
голове 780
ри, 780
)@@ 780
мый 780
лес 780
безу@@ 780
просну@@ 780
ему@@ 780
Есть 780
Пагане@@ 779
ций 779
делал 779
характер@@ 778
Вз@@ 778
ных. 778
пада@@ 778
гражда@@ 777
верх@@ 777
ешь. 777
провод@@ 777
вшую 776
ребен@@ 776
ука@@ 776
шо 776
появ@@ 775
указа@@ 775
землю. 775
ствовать 775
али 775
Сою@@ 775
схват@@ 775
ров. 774
Ак@@ 774
40@@ 774
доми@@ 774
медлен@@ 774
крови@@ 774
189@@ 774
море 774
знаю 774
ошиб@@ 773
смотрела 773
чаль@@ 773
лицом 773
— Не 773
повторя@@ 772
вит@@ 772
двери 772
Павлов@@ 772
сро@@ 771
брат@@ 771
Кан@@ 771
ави@@ 771
ствует 771
чно, 770
разные 770
Старик 769
испуган@@ 769
удалось 769
лении 769
род 769
какие-то 769
гах 769
каль@@ 769
разных 768
фигу@@ 768
ения. 768
зы. 768
Ры@@ 768
Тихо@@ 768
ли! 768
беспокой@@ 768
гами 767
бе, 767
заре@@ 767
самоле@@ 766
бара@@ 766
той, 766
преде@@ 766
Свя@@ 766
казалась 766
шум@@ 766
царя 765
Хорошо@@ 765
муже@@ 765
сентября 765
щ 764
немцы 764
щик 764
открыл 764
ста. 764
последние 764
ющее 764
студен@@ 763
k@@ 763
яро@@ 763
хочется 763
долго@@ 763
ради 762
оч@@ 762
Ска@@ 762
Тру@@ 762
пи 761
кори@@ 761
СССР@@ 761
сынов 760
двумя 760
выско@@ 760
лежали 760
тельных 760
ари@@ 760
найти 760
направлени@@ 760
21. 759
щу 759
поги@@ 759
Швейцари@@ 759
сбо@@ 759
захва@@ 759
ка? 759
неизвест@@ 758
бесе@@ 758
пел 758
24@@ 758
Юр@@ 757
правитель@@ 757
Обломо@@ 757
слушал 757
Вот, 757
чёр@@ 757
зом 756
брал 756
Ино@@ 756
ясь. 756
яся 756
слов@@ 755
исклю@@ 755
всю@@ 755
заку@@ 755
еш@@ 755
рал 755
степен@@ 755
N@@ 755
таком 755
w@@ 755
стым 754
мать. 754
чему 754
меди@@ 754
колон@@ 754
Кондрать@@ 754
Сле@@ 754
t 754
слышал 754
думать 754
требу@@ 753
Гре@@ 753
гала 753
Башкортостан 752
жие 752
вас@@ 752
стов@@ 752
фото@@ 752
Затем 752
стараясь 751
шке 751
дной 751
предложил 751
В. @@ 751
ного. 751
юся 751
больше, 751
Нам 750
12 750
направ@@ 750
голов@@ 750
и… 750
дови@@ 749
ли… 749
Але@@ 749
ски. 749
Насе@@ 749
сия@@ 748
брат 748
Нико@@ 748
усили@@ 748
» — 748
место, 748
мал 748
части@@ 748
зи 748
сторону, 747
Господа 747
правлени@@ 747
Александро@@ 747
ский. 747
письмо 747
нику 746
степ@@ 746
ются, 746
ныне 746
чая 746
рань@@ 746
кап@@ 745
жает 745
ванием 745
отоз@@ 745
чон@@ 745
прошел 744
смотрит 744
Над 744
вслед 744
нашел 743
никакого 743
60@@ 743
пой 743
электри@@ 743
цу, 743
вида@@ 743
большое 742
вё@@ 742
озер@@ 741
двор@@ 741
льно 741
хся 741
политиче@@ 741
сда@@ 741
обма@@ 741
различ@@ 741
прошеп@@ 740
тебе@@ 740
пришла 740
к? 740
приз@@ 740
гнал 740
); 740
полков@@ 740
шь! 739
стью, 739
ла? 739
куда@@ 738
беспоко@@ 738
комисса@@ 738
бежала 738
целый 738
кресть@@ 738
страда@@ 737
числе 737
круж@@ 737
съе@@ 737
исчез@@ 737
угод@@ 737
утра 737
отра@@ 736
будет, 736
ницу 736
окна 736
совето@@ 736
»; 736
отры@@ 736
слыши@@ 736
моих 736
дочь 735
бран@@ 735
мать, 735
вообще 735
вые, 735
упо@@ 735
ябло@@ 734
вей 734
потом, 734
Чи@@ 734
Тер@@ 734
старался 734
ток, 734
бог 734
ки… 734
сюда, 734
Вскоре 733
Доро@@ 733
прас@@ 733
Анна 733
Кри@@ 733
году. 733
прислуши@@ 733
тельное 733
кост@@ 733
современ@@ 733
назад, 732
ваш 732
чке 732
а? 732
нился 732
говорил: 732
вклю@@ 732
кова@@ 732
В. 731
уничто@@ 731
топо@@ 731
испыта@@ 731
двое 731
Васе@@ 731
подви@@ 730
23@@ 730
нице 730
Прокоф@@ 730
месте, 730
Хот@@ 730
ему: 730
несмотря 729
1943 729
десяти 729
х? 729
тами, 729
ение. 729
Кроме 729
взры@@ 728
бля@@ 728
станет 728
ким, 728
внутрен@@ 727
прости@@ 727
фла@@ 727
бега@@ 727
коммуни@@ 727
ще, 727
дорогу 727
снял 726
товарища@@ 726
удоб@@ 726
дохну@@ 726
Це@@ 726
суб@@ 726
солдат 726
at@@ 726
специаль@@ 725
22. 725
км². 725
лю. 725
ственного 725
ди! 725
широко 725
маст@@ 724
самому 724
вли@@ 724
надоб@@ 724
красно@@ 724
y@@ 724
придется 723
проли@@ 723
кинул 722
Катя 722
хотела 722
живу@@ 722
тех, 722
Вла@@ 722
свиде@@ 722
обычно 722
следует 722
состав 722
полз@@ 722
поставил 722
относи@@ 722
конец 722
сот 722
маленький 721
вала, 721
стра 721
начале 721
погляды@@ 721
ноября 721
пригото@@ 720
конца 720
тет 720
третий 720
новых 720
пах@@ 720
ворот 719
числен@@ 719
ули@@ 719
рую 718
неве@@ 718
вей@@ 718
друга 718
тени@@ 718
пущен@@ 718
оставля@@ 718
момен@@ 718
марта 717
усмехну@@ 717
твои 717
нах@@ 716
ведения 716
протянул 716
х… 716
импери@@ 716
дня@@ 716
шали 716
зре@@ 716
ушел 716
начин@@ 716
начальник 716
архи@@ 716
них. 716
валя@@ 716
вновь 716
распа@@ 716
ночи 716
Петь@@ 716
академи@@ 716
стей 716
Из-@@ 715
отряд 715
июня 715
Сталин@@ 714
лами 714
едини@@ 714
кци@@ 714
ья. 714
ями. 714
Несколько 714
дий 714
уте@@ 714
стую 713
невольно 713
ром. 713
кала 713
самолё@@ 713
нас. 713
древ@@ 713
другое 713
тябр@@ 712
вечером 712
шу. 712
Александ@@ 712
груди 712
ер 712
мые 712
туда, 712
лось. 712
поверх@@ 712
вое@@ 712
ченный 711
плечо@@ 711
установ@@ 711
вать@@ 711
тащил 711
владе@@ 711
рых 710
земля 710
щую 710
Эти 710
земля@@ 710
подроб@@ 709
ждение 709
отста@@ 709
Степан 709
честь 709
согласи@@ 709
плохо 709
использо@@ 709
Петя 708
Какой 708
Восто@@ 708
возбу@@ 708
себе. 708
домой, 707
вперед, 707
Гля@@ 707
илось. 707
раду@@ 707
смен@@ 706
то. 706
правил@@ 706
словами 706
Ря@@ 706
взо@@ 706
слова. 706
чувствовал 706
вид 706
е-@@ 706
ною 705
возгла@@ 705
командира 705
душе 705
груз@@ 705
течение 705
июля 705
Тре@@ 705
сохран@@ 705
кат@@ 705
слож@@ 705
меньше 704
бук@@ 704
л… 704
ления. 704
Кост@@ 704
менее 704
голоса 704
повторил 704
новой 703
док 703
слег@@ 703
иму@@ 703
дети 703
30 703
болта@@ 703
-и@@ 702
тин 702
СШ@@ 702
Гер@@ 702
кам, 702
разведчи@@ 702
впереди 701
меш@@ 701
образом 701
головой, 701
коммуна 700
шина 700
вза@@ 700
ла… 700
августа 700
ничего, 699
чен 699
кина 699
большеви@@ 699
наверное, 699
шки. 698
виз@@ 698
возму@@ 698
обли@@ 698
щался 698
али@@ 698
разу 698
производ@@ 698
Р 697
рой 697
жу. 697
прили@@ 697
есть@@ 697
раздался 697
тый, 696
Кэ@@ 696
знаком@@ 696
оттуда 696
навстречу 696
человека. 696
Ал@@ 695
брать@@ 694
Никто 694
домой. 694
вшегося 694
I 694
распоря@@ 693
надо, 693
изо@@ 693
ью. 693
спуска@@ 693
перио@@ 693
рам 693
милли@@ 692
листь@@ 692
интере@@ 692
хими@@ 692
Бога 692
ас@@ 692
чик@@ 691
тав@@ 691
загля@@ 691
гур@@ 691
Види@@ 690
довер@@ 690
преры@@ 690
сели 690
веро-@@ 690
дался 690
дал, 690
школь@@ 690
каким 689
дря@@ 689
печаль@@ 689
круг@@ 689
Петербур@@ 688
послал 688
вниз 688
и? 688
Смотри@@ 688
правда, 688
Коман@@ 688
ец 688
востор@@ 688
Ибо 687
цу. 687
прине@@ 687
доса@@ 687
рик 687
зуба@@ 687
нашу 687
встрет@@ 686
ворот@@ 686
ваться. 686
.0@@ 686
бен@@ 686
сей 686
перво@@ 686
отды@@ 685
Бра@@ 685
ию@@ 685
изум@@ 685
бежали 685
Кир@@ 685
шения 685
ногами 685
Длина 685
гай@@ 685
шься 684
ки? 684
Мару@@ 684
Кур@@ 684
недавно 684
реша@@ 684
октября 684
нем, 684
тысячи 684
господин 684
вож@@ 684
вести@@ 684
вверх 684
нять 684
срав@@ 683
какую@@ 683
вшее 683
оруди@@ 682
дороги 682
знамени@@ 682
сорок 682
щал 682
Кара@@ 682
апреля 682
инстру@@ 682
ла! 682
Петр 681
там. 681
вании 681
15 681
е-то 681
представ@@ 680
мешо@@ 680
отме@@ 680
вела 680
безо@@ 679
человече@@ 679
предо@@ 679
фак@@ 679
пали 679
Том 678
(«@@ 678
университе@@ 678
чное 678
воору@@ 678
рот 677
народа 677
фан@@ 677
кин. 677
мо. 676
бло@@ 676
мян@@ 676
шту@@ 676
W@@ 675
валь@@ 675
Поз@@ 675
лина 675
века 675
реда@@ 674
мото@@ 674
мама 674
ье, 673
Иису@@ 672
Веро@@ 672
сче@@ 672
Жу@@ 672
инженер@@ 672
исче@@ 672
че. 672
России. 672
цов, 672
желе@@ 671
чески 671
проро@@ 671
во-@@ 670
чик, 670
план@@ 670
Ивано@@ 669
орден@@ 669
предме@@ 669
тью 668
ваши@@ 668
дный 668
рал@@ 668
мили@@ 668
is@@ 668
тороп@@ 667
ури@@ 667
нут 667
Татар@@ 667
спер@@ 667
рука 666
ку: 666
лёт@@ 665
Луч@@ 665
ад@@ 665
пыт@@ 664
бо, 663
таре@@ 663
граждан@@ 662
награ@@ 662
Само@@ 662
ног 662
провин@@ 661
содержа@@ 661
составля@@ 660
пит 660
ват@@ 660
нор@@ 660
Сав@@ 659
чок 659
дов. 659
ввер@@ 657
профессо@@ 657
23. 656
носо@@ 656
командо@@ 656
ам@@ 656
ть; 656
Ново@@ 655
Кре@@ 655
проду@@ 655
ес 655
тла@@ 654
Мен@@ 654
Ев@@ 654
191@@ 654
циал@@ 654
оре@@ 653
зам@@ 653
пулеме@@ 653
жа. 652
е — 652
Яков 652
лов, 651
Доб@@ 650
органи@@ 650
центр 650
площад@@ 649
вни@@ 648
час@@ 648
нали@@ 648
район 648
рех 647
остано@@ 646
%@@ 646
сон 646
се. 646
дели@@ 646
днев@@ 645
капи@@ 645
Дже@@ 645
Ай@@ 644
мучи@@ 644
програм@@ 643
бай@@ 642
Май@@ 641
Гар@@ 641
Игна@@ 640
22@@ 639
будь 639
24. 639
Нес@@ 639
класс@@ 638
приказа@@ 638
Гленар@@ 638
мен 638
Хри@@ 637
Тур@@ 637
.) 637
тетра@@ 637
X 637
Давыдов 637
п. 637
сов, 636
инов@@ 636
партий@@ 636
цу@@ 636
истории 635
ал 634
сим@@ 633
административ@@ 633
горизон@@ 633
es@@ 632
F@@ 632
пах 632
сколь@@ 631
«И@@ 631
млен@@ 631
батаре@@ 631
спек@@ 630
тир@@ 629
энерги@@ 629
Мол@@ 628
тей 628
гин 627
капитан@@ 626
ске@@ 626
ок 626
ам 625
Ши@@ 624
ь! 623
ки: 623
мёт@@ 622
II 622
веден@@ 622
ана@@ 621
право 621
экспеди@@ 619
ьев 619
?@@ 619
Цар@@ 619
нос 619
ала 619
пус@@ 618
ch@@ 618
нок 618
кси@@ 617
всем, 617
фа 617
вай, 616
мун@@ 615
Суворо@@ 615
деле@@ 615
пала@@ 614
150@@ 614
гель@@ 613
Семен 613
учили@@ 612
лень@@ 612
27@@ 612
Бори@@ 612
хуто@@ 611
Й@@ 611
те… 610
Марья 610
Семен@@ 609
G@@ 609
жин@@ 608
H@@ 608
фра@@ 607
объек@@ 607
скре@@ 607
рия 607
вел@@ 605
цкий 605
1944 605
ктор@@ 604
рим@@ 604
Уль@@ 604
хро@@ 604
Ер@@ 604
O@@ 604
ума 603
О, 603
лин 601
вах 600
-таки 600
Тол@@ 600
вана 599
Пла@@ 599
к… 598
зав@@ 598
Ты@@ 598
жер@@ 598
мин 598
Воропа@@ 597
Ню@@ 597
Васильевич 596
кай@@ 596
хи, 596
–@@ 596
ори@@ 596
мисси@@ 595
рин 595
укреп@@ 594
гни@@ 594
виль@@ 594
врем@@ 594
рем@@ 594
метал@@ 593
коллек@@ 593
E@@ 593
тура 592
Вой@@ 592
Михай@@ 591
фабри@@ 591
мир 590
км. 590
красноар@@ 589
палу@@ 589
эр@@ 588
030@@ 588
Пётр 587
Иваны@@ 587
Федор 587
ланд@@ 586
я» 586
Ольга 585
майор 585
кив@@ 585
обя@@ 585
совершен@@ 584
«В@@ 584
стер 584
Арка@@ 583
Иа@@ 583
Рай@@ 583
полковник 582
al@@ 581
евич, 581
площадь 581
Исто@@ 579
электро@@ 579
d 579
el@@ 578
гун@@ 577
интер@@ 576
25. 576
Бар@@ 576
Дан@@ 576
мел 575
комп@@ 575
Джи@@ 575
Иуде@@ 574
Гру@@ 574
филосо@@ 574
Пар@@ 573
капита@@ 573
Иоси@@ 573
Шеркке@@ 573
квар@@ 571
сах 571
кер@@ 571
та! 571
неф@@ 570
рей 570
ран 570
режисс@@ 570
проте@@ 569
Оле@@ 569
Мер@@ 568
Итали@@ 568
рем 567
комму@@ 567
Кузьми@@ 567
37@@ 567
Анти@@ 566
Амери@@ 566
коф@@ 566
на! 566
литератур@@ 565
Чжа@@ 565
Золо@@ 565
25 565
зов 564
мере 564
быст@@ 564
обыкнов@@ 564
Женя 564
Шерккей 564
мышлен@@ 563
рет 563
цин@@ 563
38@@ 563
ман, 562
инжен@@ 562
Тет@@ 562
13011@@ 562
оши@@ 562
тащи@@ 561
бол@@ 561
(18@@ 561
М. 561
секре@@ 561
Площа@@ 560
раш@@ 560
пассажи@@ 560
ответ 560
опы@@ 559
грана@@ 559
подполь@@ 559
ка… 559
оло@@ 559
культу@@ 559
пионер@@ 559
Мария 558
преступ@@ 557
Башкорто@@ 557
вспо@@ 557
импера@@ 557
прини@@ 557
калит@@ 557
Коль@@ 557
элемен@@ 556
Сла@@ 556
Мон@@ 555
теори@@ 555
it@@ 555
шала 554
гвардей@@ 554
библиоте@@ 553
тино@@ 553
XV@@ 553
др@@ 553
институ@@ 552
Черны@@ 552
Интер@@ 552
бутыл@@ 552
Англи@@ 552
джа@@ 551
Озеро@@ 551
дир 551
Кра@@ 551
ката@@ 551
лап@@ 551
кипа@@ 551
Дави@@ 550
II@@ 550
шело@@ 550
спорт@@ 549
ьте 549
70@@ 549
№@@ 548
сержант 548
% 548
l 548
лка 548
26. 548
управ@@ 548
", 547
14 546
Ага@@ 546
ька 544
28@@ 544
кавалер@@ 543
шах@@ 543
Гав@@ 543
29@@ 543
Зи@@ 543
аппара@@ 543
ников@@ 543
поход@@ 543
Илья 543
Мед@@ 542
лени 542
Мор@@ 542
профес@@ 542
Филип@@ 541
дум@@ 541
исполь@@ 541
тепер@@ 540
курат@@ 540
Ой, 540
никам 539
ый@@ 538
бух@@ 538
пуле@@ 538
звен@@ 538
тя 537
Вера 536
Уэл@@ 536
круг 535
себ@@ 535
связ@@ 535
мов, 535
о-@@ 534
Эн@@ 534
стин@@ 534
актив@@ 533
Нев@@ 533
27. 533
грам@@ 533
5-@@ 532
18 532
22 532
систем@@ 531
Ильсеяр 531
еле 531
Поли@@ 531
Изра@@ 530
ш, 529
литерату@@ 529
шар@@ 529
11 529
Чка@@ 529
Поло@@ 529
таба@@ 528
нике 528
90@@ 527
Валери@@ 527
шос@@ 526
Авдо@@ 526
автома@@ 525
мов@@ 525
31 524
Христо@@ 523
Марий@@ 523
фф@@ 522
Тим@@ 522
кача@@ 522
сою@@ 520
неш@@ 520
сили@@ 520
евро@@ 520
шин 519
те: 519
лия 519
Один@@ 519
26@@ 519
Михайлович 519
зала 519
3, 519
куль@@ 519
спросил@@ 519
они@@ 518
Дон@@ 518
ьевич 518
ваш@@ 518
Пари@@ 518
констру@@ 517
дик@@ 517
Сини@@ 517
III 517
мах 517
шат@@ 517
опыт@@ 517
бов@@ 516
21 515
яла 515
пов 514
городи@@ 514
дется 513
Лозне@@ 513
Ленька 513
АСС@@ 512
уни@@ 512
Н. 512
5, 511
мат@@ 510
Джем@@ 510
с-@@ 510
й» 510
вок@@ 509
Тухта@@ 509
Григор@@ 508
ьер@@ 507
съ@@ 507
мл@@ 507
Вален@@ 507
тракто@@ 506
тон 506
Ды@@ 506
Све@@ 506
Бур@@ 506
комисси@@ 505
16 504
ic@@ 504
рак@@ 504
педаго@@ 503
17 503
Кол@@ 503
больше@@ 502
Моисе@@ 502
зира@@ 502
115@@ 502
Костя 502
сам, 502
ове@@ 501
Васька 501
кает 500
24 500
Гавр@@ 499
кен@@ 499
13 499
смотр@@ 498
Афана@@ 497
Кузь@@ 496
туа@@ 496
Спи@@ 496
28. 496
учре@@ 496
лов. 496
веро@@ 496
Артамо@@ 496
костю@@ 496
Тимофей 496
ап@@ 496
чей@@ 496
Сяо 495
Бере@@ 495
хи. 494
слови@@ 494
нило@@ 493
Ильинич@@ 493
план 492
Ната@@ 492
информа@@ 491
Евг@@ 491
рачи@@ 490
Сен@@ 490
Катер@@ 489
Ву@@ 488
чемо@@ 488
Тё@@ 488
м» 488
Сэн@@ 488
аэрод@@ 487
куро@@ 487
Сергей. 486
каре@@ 486
ol@@ 485
зови@@ 484
палат@@ 484
би 484
19 483
ферен@@ 483
председатель 482
юш@@ 482
вша@@ 482
Фили@@ 482
Виль@@ 481
Миха@@ 481
капитана 480
клет@@ 480
Корча@@ 480
дин 480
И. 479
Ваня 479
«У@@ 479
ине@@ 479
Батма@@ 479
Роди@@ 478
плет@@ 478
Дар@@ 478
he 476
кан 476
доктор 476
Дик 476
шав 475
шку@@ 475
зон@@ 474
4, 474
Бой@@ 473
Луки@@ 473
Эй, 473
роб@@ 473
пух@@ 472
Силь@@ 472
Кат@@ 471
щик@@ 471
приказ@@ 471
след 471
па. 471
завод@@ 470
Яковле@@ 469
прер@@ 469
Валерий 469
... 469
дан 468
том@@ 467
Лень@@ 467
121111000@@ 466
часть@@ 466
Екатер@@ 466
лович 466
лка@@ 465
многи@@ 465
опер@@ 464
писто@@ 464
С. 463
авгу@@ 463
трен@@ 463
ен 463
Парти@@ 463
35@@ 462
участо@@ 462
кал@@ 462
23 462
материал@@ 462
ыр@@ 461
Иисус 460
Дмитрий 460
пли@@ 459
29. 459
картин@@ 457
Али@@ 457
ou@@ 457
кус@@ 457
Джон 456
рий 456
1-@@ 456
фельд@@ 455
сержан@@ 455
Иса@@ 455
112@@ 455
Егоро@@ 454
тут@@ 454
o 454
доль@@ 453
ститу@@ 453
шай@@ 453
ец@@ 452
ел@@ 452
Ирин@@ 452
истре@@ 452
6, 452
Никифо@@ 452
рец@@ 452
Мини@@ 451
100212@@ 451
Бал@@ 451
Анфи@@ 451
Фед@@ 451
мович 450
Зал@@ 450
«Э@@ 450
Афри@@ 450
27 449
президен@@ 448
Дун@@ 448
сса 448
Соф@@ 447
шком 447
Ели@@ 447
сне 447
XI@@ 446
Википе@@ 446
«Т@@ 446
Наталья 446
ман. 446
База@@ 446
сем 445
ку! 445
Сань@@ 444
комен@@ 444
Бун@@ 444
Администра@@ 444
y 444
км, 443
дек@@ 443
ич 442
Гене@@ 442
волю@@ 442
1—@@ 442
радио@@ 442
штаб@@ 441
минут@@ 441
курт@@ 441
гимна@@ 440
шла@@ 440
талан@@ 440
апре@@ 440
джи@@ 439
полити@@ 439
78@@ 439
гли@@ 439
28 439
юб@@ 439
30. 439
Щор@@ 439
директо@@ 438
евна, 438
Соломо@@ 438
001121153000@@ 438
коно@@ 438
воскли@@ 438
Гран@@ 438
чера 438
дис@@ 438
Прохо@@ 437
Вен@@ 437
тера@@ 437
1121030000@@ 437
рон 436
систе@@ 435
ван. 435
i 435
тени 434
ляр@@ 434
эт@@ 434
зин 434
утра@@ 434
мила 434
лим@@ 433
дон 433
Пло@@ 433
чах 433
дежур@@ 432
5 — 432
Беридзе 432
Ромашо@@ 431
сен 431
Дуня@@ 431
отряда 431
34@@ 431
Элен@@ 430
Наталь@@ 430
пала 430
Поль@@ 430
пери@@ 429
ку? 428
харак@@ 428
дине 428
Макла@@ 428
Люд@@ 428
188@@ 427
Аксин@@ 426
му-то 426
тах, 426
26 426
Маргари@@ 426
Эк@@ 426
Аб@@ 425
1100@@ 425
Семено@@ 425
уреа@@ 424
Го 424
ине, 423
рах@@ 422
рее@@ 421
лик 421
био@@ 420
чем, 420
Пантелей 419
Филь@@ 419
Влади@@ 419
пехо@@ 419
Прохор 418
дека@@ 418
ван, 418
03050@@ 418
212@@ 418
Стеф@@ 417
Ат@@ 417
Ги@@ 417
тра, 416
комите@@ 416
36@@ 416
z@@ 416
шле@@ 415
чан@@ 415
РСФС@@ 415
автомо@@ 414
Усть-@@ 414
Учи@@ 414
марш@@ 413
госпи@@ 412
лта@@ 412
техни@@ 412
гит@@ 411
Ган@@ 411
дж@@ 411
Матвей 411
рович 411
(199@@ 410
математи@@ 410
Тем 410
евич@@ 409
Олег 409
лове@@ 409
Мил@@ 408
«Ка@@ 408
Ивановна 408
гимнази@@ 407
лев 407
них@@ 406
Лан@@ 406
коза@@ 406
номер@@ 406
ри. 405
вер 405
Вавил@@ 405
блин@@ 405
актри@@ 404
стена@@ 403
ма! 402
ноя@@ 402
рам@@ 402
Геро@@ 402
31. 402
Бай@@ 402
клан@@ 402
верси@@ 401
-та@@ 401
2-@@ 401
Ковшо@@ 400
сфер@@ 399
Чочо@@ 399
Огня@@ 398
юри@@ 398
Ке@@ 398
командир@@ 398
пас@@ 397
Никита 397
департа@@ 397
Цюань-ха@@ 397
вину@@ 396
47@@ 396
тери@@ 396
цей@@ 396
Еф@@ 395
il@@ 395
комендан@@ 395
Фёдоро@@ 395
федера@@ 395
пка 395
Фома 395
шты@@ 395
патри@@ 394
Коло@@ 394
Михайлов@@ 394
(200@@ 394
us@@ 393
Лё@@ 393
Дра@@ 393
союз@@ 393
Ура@@ 392
Бор@@ 392
48@@ 392
пит@@ 391
39@@ 390
Санька 389
ере, 389
Соколо@@ 389
Ур@@ 388
ган 388
демо@@ 388
старик. 388
мач@@ 386
на? 385
партизан 385
Коми@@ 385
центр@@ 385
Клар@@ 385
Сергей, 384
186@@ 384
Нагуль@@ 384
Игнать@@ 383
Зу@@ 383
деми@@ 383
Михе@@ 383
Нина 383
полномо@@ 382
тыр@@ 382
om@@ 382
процен@@ 382
полк 381
темпера@@ 381
es 380
пич@@ 380
сур@@ 379
Хар@@ 379
эскадриль@@ 379
цип@@ 379
ч! 378
циф@@ 377
Мин@@ 377
гося 377
Лопу@@ 376
Ирина 375
нер 375
112115@@ 375
кач@@ 375
Александрович 374
Пал@@ 374
Елена 374
Сели@@ 374
эн 373
приказ 373
юн@@ 373
стере@@ 372
рах, 372
r 371
Робер@@ 371
мери@@ 370
куша@@ 370
.: 370
Бау@@ 369
Евдо@@ 369
2, 369
абза@@ 369
Лена 368
машина 368
конец, 368
станци@@ 368
фронта 368
Лон@@ 368
зиден@@ 368
32. 368
V 367
старик, 367
Митя 367
1, 367
тан 367
’@@ 367
Дне@@ 366
иш@@ 366
ино 366
Алта@@ 366
фон 366
Марин@@ 365
диви@@ 365
Татьяна 365
Трав@@ 364
другу@@ 364
стр 364
ссе 363
am@@ 362
хала@@ 362
тере@@ 362
Капитан 362
кино 361
чери 361
Леони@@ 361
офицер 361
самы@@ 361
ченко 361
1,@@ 360
экза@@ 360
187@@ 360
49@@ 360
нах, 360
Тать@@ 359
тика 359
тух@@ 359
пе, 359
Укра@@ 359
Кузьмич 358
ёр 358
аэро@@ 357
чине 357
Хань 357
Зоя 356
тум@@ 356
бин 356
Чижик 355
Вит@@ 355
ra@@ 355
U@@ 354
Дэ@@ 354
фри@@ 354
май 353
брон@@ 353
пулемет@@ 353
») 352
Огнянов 352
Брян@@ 352
Игор@@ 352
циклопе@@ 351
9, 351
Ана@@ 351
СС@@ 350
Сал@@ 350
си, 350
короб@@ 350
Петрович, 349
re@@ 349
Давид 349
as@@ 349
телеграм@@ 349
Беридз@@ 348
лам 348
гль@@ 348
ути@@ 347
жандар@@ 347
ма? 347
1) 347
стрелко@@ 346
er 346
слуши@@ 346
дире@@ 346
дор 345
Кав@@ 345
Тем@@ 345
сып@@ 345
генерал 345
Авра@@ 345
Мере@@ 345
матема@@ 345
навстре@@ 344
Федоро@@ 344
пера@@ 344
слав 343
Егор 343
..» 343
ух@@ 343
рек 342
Чижи@@ 342
Рагу@@ 342
IS@@ 341
вар 341
Бри@@ 341
нец 341
шур@@ 341
3) 341
вне 340
Шо@@ 340
Пуга@@ 340
довольстви@@ 340
факуль@@ 340
Чапа@@ 340
Лей@@ 340
50 340
ут 340
е» 339
Гленарван 339
сам@@ 339
Лао-@@ 339
тура@@ 338
н-@@ 338
Испа@@ 338
мистер 338
кет@@ 337
Кла@@ 337
фут@@ 337
Кро@@ 337
Ерофей 337
пион@@ 337
генерал-@@ 337
Кер@@ 336
мен, 336
вольно 336
130@@ 335
тан, 335
3-@@ 335
цари@@ 334
Труба@@ 334
Чочой 333
те-@@ 332
Алексеевич 332
рать 332
Коля 332
(198@@ 331
парт@@ 331
Батманов 330
Франци@@ 330
Кирса@@ 329
ара@@ 328
Хал@@ 327
сла 327
рян@@ 327
организаци@@ 326
роман@@ 325
Валь@@ 325
Шура 325
мана@@ 324
2) 324
N 324
чее 324
сему 323
Мат@@ 322
хин 322
лер 322
в-@@ 321
век 321
Анатолий 321
ка-@@ 321
пали@@ 321
зап@@ 321
Надежда 319
теат@@ 319
портре@@ 319
Валентина 318
Борис 317
х-@@ 317
1030000@@ 317
7, 316
Федя 316
Аксинья 315
Тёма 315
Ромашов 315
et@@ 315
пче@@ 314
ri@@ 314
лаш@@ 314
упра@@ 314
социал@@ 313
Австра@@ 313
Арта@@ 313
ro@@ 312
форма@@ 311
Григорьевич 311
красноарме@@ 310
суд 310
Васил@@ 310
тре 309
трон@@ 309
Георгий 309
пине 308
ломо@@ 307
Пуш@@ 307
жур@@ 306
пе. 306
чук 305
зеро@@ 305
u 305
фронт 304
on 304
кото@@ 303
навли@@ 303
универси@@ 302
гари@@ 302
от, 302
-э@@ 302
мец@@ 301
штаб 301
чар@@ 300
инов 300
П. 299
аб@@ 299
Георги@@ 298
та? 297
Г. 297
Лукич 297
Хи@@ 295
Фё@@ 294
кла 294
of 294
ул 293
Штоль@@ 293
нат@@ 292
сем. 292
1111@@ 291
сыва@@ 291
муз@@ 290
лий 290
( 289
K@@ 288
J@@ 287
эпи@@ 287
на-@@ 287
учитель 284
путе@@ 284
Ребя@@ 284
илет@@ 283
администра@@ 283
хоз@@ 282
Сар@@ 281
пер 280
кура@@ 279
°@@ 279
полно@@ 278
m 278
чев 277
сал@@ 277
сад 276
колхоз 275
хуш@@ 275
тен 275
наци@@ 274
вине 274
Ир@@ 273
ана 273
особ@@ 273
та: 273
Коне@@ 273
ка» 272
шах 271
та… 271
жет, 271
э 271
тина 271
Капи@@ 270
x@@ 270
чит, 269
пай@@ 269
тур 269
сомо@@ 268
тун@@ 267
слан@@ 266
Ся@@ 266
вян@@ 265
шкин 264
Моисей 264
.194@@ 264
пек@@ 264
Мить@@ 264
роде 263
нег@@ 263
ун 263
фран@@ 263
театр 261
сыл@@ 261
Зде@@ 260
тай 260
лай@@ 259
Обломов 258
рех@@ 258
бя@@ 257
дз@@ 256
постоя@@ 255
кипе@@ 254
Эр@@ 252
сен, 252
Чере@@ 251
частли@@ 251
мен. 251
рас 250
Ленин 248
кнов@@ 248
пир@@ 248
h 247
мала@@ 246
Н 246
мат 246
мла@@ 246
кул@@ 245
ним@@ 245
мест 244
самолет 244
кала, 244
Сей@@ 243
рик@@ 243
пун@@ 243
пур@@ 243
Ильсе@@ 242
бок@@ 242
тив, 240
ерен 240
машо@@ 240
вале@@ 240
вара 235
км@@ 235
Оте@@ 235
сист@@ 234
град 234
Теле@@ 234
стан 233
Сталин 233
разд@@ 233
мана, 233
é@@ 232
са: 231
франц@@ 231
обходи@@ 230
возь 230
/@@ 230
карту@@ 229
эска@@ 229
январ@@ 228
гидро@@ 228
суха@@ 227
Ф 226
сап@@ 226
сана 225
яна 225
Тух@@ 224
рен 223
́ 223
мала 222
тюр@@ 222
физ@@ 221
Еро@@ 221
лан 219
кун@@ 219
сул@@ 219
сан 218
тыл@@ 217
шне 214
сана@@ 214
совет 214
лат@@ 210
фило@@ 210
мана. 209
бассейн 208
рта 208
тим@@ 207
j@@ 207
пан 207
режи@@ 205
теле 205
Шер@@ 205
серье@@ 205
сех 205
00112115@@ 204
мара 204
Алек@@ 204
нец@@ 204
повтори@@ 204
Кана@@ 202
лли 202
c 199
;@@ 199
ака@@ 198
крыльца 197
хутор@@ 197
g 197
цер 196
льд@@ 195
Рос@@ 194
шут 190
Каш@@ 190
ожидан@@ 189
цент@@ 189
Яков@@ 188
Хан@@ 188
кас@@ 188
фес@@ 187
A 186
тупа@@ 186
пуль@@ 186
споко@@ 186
сук@@ 186
рах. 186
-ха@@ 184
чул@@ 184
Тимо@@ 183
кай 183
землю@@ 182
эс@@ 182
уй-@@ 181
лла 180
C 180
тать. 180
кана 179
Баш@@ 179
Ад@@ 178
сна 178
халь@@ 178
ак 177
Тутар@@ 177
ерт@@ 176
тать, 176
= 176
хай 175
метр 174
телей@@ 174
генерал@@ 173
Пы@@ 172
муни@@ 172
лар@@ 172
гвар@@ 172
+ 172
суту@@ 172
П 172
смотря 171
Шур@@ 171
казак 170
юл@@ 170
q@@ 170
пех 170
кил@@ 169
хин@@ 169
Y@@ 169
км²@@ 169
Ил@@ 168
k 168
Лар@@ 167
Брита@@ 167
тах@@ 165
п-@@ 161
Анато@@ 161
леш@@ 160
не! 160
пар 159
хай@@ 157
лине 157
Ен@@ 156
Бери@@ 155
Союз@@ 155
бас@@ 155
туп@@ 153
мг@@ 153
хта@@ 152
элек@@ 151
р! 151
чен. 150
тав 149
Надеж@@ 149
тип@@ 148
Кондра@@ 147
лышал@@ 147
катер@@ 146
гене@@ 146
ма-@@ 146
сав@@ 146
Гос@@ 146
сик@@ 146
ртиллер@@ 145
йт 145
обще 145
чах, 145
команда 145
парта@@ 144
Уй@@ 143
шлеп@@ 143
хап@@ 143
тата 142
Ас@@ 142
тери 142
Мои@@ 141
Совет 140
усме@@ 140
Неу@@ 139
Ё@@ 139
спорт 138
кан, 137
О. 136
цил@@ 136
сала@@ 136
юра@@ 136
Тар@@ 135
тенан@@ 135
та-@@ 135
Дон 134
хах 134
Д 133
чен, 132
сене@@ 131
тема@@ 130
ла-@@ 130
пин 130
1111000@@ 130
Z@@ 130
Серё@@ 130
Израиль 128
литера@@ 128
вара@@ 128
тул@@ 127
туха@@ 127
+@@ 127
алли@@ 127
­@@ 126
сак@@ 125
гуль@@ 125
тар 124
хен@@ 124
Египе@@ 124
кке@@ 124
тес 124
эл@@ 123
пла 123
'@@ 122
курса 122
ая@@ 122
тет, 121
сем, 121
чан 120
Ун@@ 120
сий@@ 119
энер@@ 119
3000@@ 119
ене 118
шар 118
ри-@@ 117
чав@@ 117
Б 116
кук@@ 116
не-@@ 116
танк 116
льта@@ 115
ĕ@@ 115
муници@@ 114
эле@@ 113
выля@@ 113
тат@@ 113
артиллер@@ 112
кка@@ 112
„@@ 112
тот@@ 112
мене 112
стена 110
тет. 110
Ог@@ 109
таран@@ 107
p 107
Отече@@ 107
люде@@ 106
сир@@ 106
чир@@ 106
мест, 105
Давы@@ 105
-си@@ 105
Христос 104
рт 104
аван@@ 103
.. 103
ә@@ 102
лаша 102
тап@@ 102
ав 101
рт-@@ 100
_@@ 100
судар@@ 99
..@@ 99
Серг@@ 99
лах@@ 98
ласа 98
ял. 98
сив@@ 98
Кай@@ 98
x 97
чень 95
вена@@ 95
рса 95
З 95
рус 95
Ирт@@ 94
ă@@ 94
ик 92
амери@@ 92
ран, 92
тен, 91
фей 91
итле@@ 91
осторо@@ 90
апа@@ 89
иллер@@ 89
−@@ 89
Т 89
хан 88
гим@@ 88
митри@@ 88
стрело@@ 87
сар 87
аса 87
нине 86
писем 85
мест. 85
са-@@ 85
логической 84
хам 84
эй 84
S 84
ран. 82
тул 82
тупай@@ 82
уре@@ 82
кава@@ 82
² 81
пыр@@ 80
гос@@ 79
і@@ 79
“@@ 78
(Г@@ 76
Кун@@ 76
Юра@@ 76
фана@@ 76
улы@@ 76
пытан@@ 76
z 76
Пёт@@ 75
Шы@@ 74
Сегод@@ 74
мар 74
Рес@@ 74
мак 74
Вско@@ 74
w 73
рен, 73
уя@@ 73
O 73
перев@@ 73
логи 73
тине 72
тне 72
шав@@ 71
кумен@@ 71
вара, 71
ты-@@ 71
рать. 71
гане@@ 70
мас 70
таш@@ 70
лана 70
Хы@@ 69
Кала@@ 68
ç@@ 68
кер 68
карта 68
ссажи@@ 68
внов@@ 67
лаша@@ 67
резу@@ 67
ртах 67
пыл@@ 66
Ков@@ 66
ü@@ 66
Анне 65
яма 65
вир@@ 65
° 64
\@@ 64
Ник@@ 64
ô@@ 63
Эй 63
М 63
мех 63
отряд@@ 63
³@@ 62
блиоте@@ 62
ци 62
юха@@ 61
сле 61
Пур@@ 61
Q@@ 60
рине 60
сем! 60
  60
ппи@@ 60
мине 60
*@@ 59
кун 59
орги@@ 59
илем@@ 59
кка 59
шер 58
туй@@ 58
цикло@@ 58
табак 58
ессе 58
Ял@@ 58
пле 57
Чо@@ 57
рӗ@@ 56
-ха! 56
май, 56
сем… 56
Ильини@@ 56
пуль 56
ä@@ 56
f 56
-ку@@ 55
Алексан@@ 54
Ы@@ 54
ким@@ 54
юх@@ 53
лле 53
лько 52
Кура@@ 52
ппин@@ 52
пса 52
аса@@ 52
á@@ 52
ыта@@ 52
Петер@@ 51
нать. 51
Пат@@ 50
йт@@ 50
мух@@ 50
D 50
рать, 50
корпус@@ 50
парне@@ 49
раса 49
Кил@@ 49
ó@@ 48
Тав@@ 48
ыт@@ 48
сем» 48
тара 48
нине, 48
юр 47
полк@@ 47
& 47
льне 46
яр 46
L 46
пир 46
мар, 45
  45
сси 45
ā@@ 44
Ии@@ 44
ö@@ 44
b 43
Ç@@ 43
нан 43
чак@@ 43
спеди@@ 42
унта 42
сем: 42
кономи@@ 41
аппа@@ 41
вара. 41
хир@@ 41
Е 40
йи@@ 40
Гидро@@ 40
сир 40
Леш@@ 40
/ 39
Швей@@ 39
кую@@ 39
тас 39
Пул@@ 38
-и 38
лав 38
РС@@ 38
лĕ@@ 38
даго@@ 38
ъ 38
Белару@@ 37
M 37
B 36
ç 36
Ит@@ 36
лас 36
-и, 36
è@@ 36
цин 36
Г 36
лесе 35
é 35
нă@@ 35
T 35
Чăваш 35
Э 35
P 35
Тин@@ 35
татах 35
* 35
лех 35
сан, 34
ĕ 34
распо@@ 34
илей@@ 34
пуль, 34
илет 34
туса 33
сене 33
лла, 33
тă@@ 33
Палла@@ 33
дера@@ 33
Ик@@ 33
×@@ 33
нар 32
изучен@@ 32
юн 32
АП@@ 32
G 32
ыл@@ 32
сак 31
театр@@ 31
Х 31
лара@@ 31
Л 31
ккин@@ 31
лана@@ 31
Ь@@ 31
ех 30
α@@ 30
=@@ 30
юри 30
çул@@ 29
‑@@ 29
гун 29
U 29
аллин@@ 29
талла 29
пата 29
евра@@ 29
ˈ@@ 29
« 28
Украина 28
E 28
сис@@ 28
цине 28
лӗх@@ 28
юань@@ 28
сана, 28
ӳ@@ 28
²@@ 28
пен 28
Ханты-Ман@@ 28
лама 28
$@@ 28
сене, 28
кран 27
Сӑ@@ 27
-ши@@ 27
аш@@ 27
суй@@ 27
′ 27
арка@@ 27
Пир@@ 27
мпа 27
ир 27
чече@@ 27
ура 26
 @@ 26
сем? 26
пат 26
япа@@ 26
|@@ 26
→ 26
кĕ@@ 25
нать 25
ː@@ 25
рех, 25
.19@@ 25
сси, 25
ФС@@ 25
кă@@ 25
ирт@@ 25
клӗ 24
суя 24
курса, 24
Шупашка@@ 24
кине 24
расса 24
“ 24
таса@@ 24
яра@@ 24
калан@@ 24
ө@@ 24
шы@@ 23
Ц 23
часах 23
кура 23
H 23
сиктер@@ 23
кен 23
повто@@ 23
сула@@ 23
	@@ 23
хул@@ 23
инке@@ 22
шак 22
чугун 22
вун@@ 22
тма@@ 22
}@@ 22
тиве@@ 21
š@@ 21
Кун 21
час-@@ 21
·@@ 21
терри@@ 21
R 21
анне@@ 21
ава@@ 21
à 21
Усть@@ 20
' 20
пек 20
юна@@ 20
чӑ@@ 20
Чи 20
† 20
Тӑван 20
мар. 20
Й 20
хур@@ 20
ача@@ 20
| 20
йы@@ 19
кке 19
хă@@ 19
― 19
F 19
рă@@ 18
шарла@@ 18
шш@@ 18
хы@@ 18
Y 18
шул@@ 18
#@@ 18
анса 18
сине 17
č@@ 17
тус@@ 17
лле, 17
ə@@ 17
министра@@ 17
сем; 17
кантон@@ 16
пере 16
иккен@@ 16
ă 16
ա@@ 16
кра 16
теме 16
ĕн 16
â@@ 16
-ши 16
ĕн@@ 16
куна 15
³ 15
ү@@ 15
туни 15
нать, 15
ß@@ 15
леке@@ 15
лă 15
І@@ 15
лха@@ 15
ا@@ 15
ӗ@@ 15
леме 14
Ҫ@@ 14
чы@@ 14
сире 14
Чӑваш 14
мă@@ 14
γ@@ 14
вă@@ 14
à@@ 14
Ш 14
ο@@ 14
’ 14
нă 14
ν@@ 14
v 14
ăн@@ 14
Ан 14
ɒ@@ 14
аман@@ 14
ī@@ 14
′@@ 13
лĕ 13
пеке@@ 13
саман@@ 13
`@@ 13
шик@@ 13
ι@@ 13
таса 13
лать. 13
енин 13
− 13
нса 13
ҫ@@ 13
чĕ@@ 13
ачи@@ 13
ر@@ 13
Z 13
илле 13
ē@@ 12
рла@@ 12
тября 12
ł@@ 12
ր@@ 12
рти 12
æ@@ 12
_ 12
τ@@ 12
Халь@@ 12
ӑ@@ 12
å@@ 12
{@@ 12
&@@ 12
ѣ@@ 12
@@@ 12
-ил@@ 11
кука@@ 11
ş@@ 11
кел 11
пур, 11
í@@ 11
Тата 11
киле@@ 11
ρ@@ 11
лăх@@ 11
сасси@@ 11
ĕр@@ 11
чӗ@@ 11
j 11
á 10
чех 10
сех@@ 10
傳 10
ե@@ 10
β@@ 10
λ@@ 10
шута 10
Ж 10
ê@@ 10
κ@@ 10
сă@@ 10
тесе 10
î@@ 10
Ь 10
‘@@ 10
лă@@ 10
і 10
çă@@ 10
Йы@@ 9
тӑр@@ 9
ŋ@@ 9
± 9
тма 9
тĕ@@ 9
чă@@ 9
q 9
лать, 9
ի@@ 9
Глен@@ 9
танах 9
çын@@ 9
пуç@@ 9
Ю 9
ě@@ 9
Ч 9
тарах 9
Шупа@@ 9
ā 9
скер@@ 9
хум@@ 8
^@@ 8
семпе 8
ε@@ 8
илет, 8
тӗр@@ 8
тӑ@@ 8
-ху@@ 8
лесе, 8
ї@@ 8
~@@ 8
ί@@ 8
Сан 8
← 8
лӑ 8
са:— 8
ɔ@@ 8
хисе@@ 8
инчи 8
Č@@ 8
Q 8
тума 8
чун 8
масть 8
сире@@ 8
K 8
ӏ@@ 8
Вă@@ 8
θ@@ 8
€@@ 8
чун@@ 7
J 7
вĕ@@ 7
тесен, 7
ӳре@@ 7
асту@@ 7
Ача@@ 7
кӗ@@ 7
дриль@@ 7
ї 7
ś@@ 7
терес 7
ăваш 7
δ@@ 7
ĕ, 7
ыра@@ 7
É@@ 7
ҫи@@ 7
хура@@ 7
һ@@ 7
чух@@ 7
из-@@ 7
ى@@ 7
Δ@@ 7
кӑн@@ 7
• 7
сир, 7
ÿ@@ 7
-ха, 7
の@@ 7
ς 7
Σ@@ 6
хыпар@@ 6
ҫҫӗ@@ 6
нашка@@ 6
″ 6
å 6
пă@@ 6
чĕл@@ 6
‎ 6
лса 6
шыв@@ 6
типе 6
ն@@ 6
Иер@@ 6
π@@ 6
çу@@ 6
̀@@ 6
‰ 6
ɛ@@ 6
ɪ@@ 6
карти@@ 6
W 6
хуп@@ 6
ó 6
тӑл@@ 6
кне 6
‰@@ 6
хут@@ 6
ل@@ 6
масть@@ 6
усали@@ 6
έ@@ 6
ссем 6
парне 6
Ман 6
ә 6
сас@@ 6
тса 6
œ@@ 6
ñ@@ 6
\ 6
ý@@ 6
ӗ 6
лӑх 6
лӑх@@ 6
ʼ@@ 6
Α@@ 5
Λ@@ 5
тата, 5
Кӗ@@ 5
хак@@ 5
пӑр@@ 5
ӗнче 5
‒@@ 5
çĕр@@ 5
ό@@ 5
ҫӗршыв@@ 5
тте 5
ури 5
կ@@ 5
ո@@ 5
ς@@ 5
ḥ@@ 5
чап@@ 5
мĕ@@ 5
çа@@ 5
йӗ@@ 5
Кунта 5
калаҫа@@ 5
çĕ@@ 5
# 5
чуна 5
корто@@ 5
юрат@@ 5
ң@@ 5
леш 5
пултару@@ 5
таран 5
ĕç@@ 5
ɑ@@ 5
ë@@ 5
ō@@ 5
م@@ 5
халь 5
Хам 5
хӗ@@ 5
χ@@ 5
्@@ 5
юпа 5
тăр@@ 5
Кая@@ 5
нӗ@@ 5
^ 5
ئ@@ 5
бря 5
ï@@ 5
ĕр 5
ú@@ 5
инчен 5
вӗ@@ 5
Ы 5
<@@ 5
пур 5
хӑ@@ 5
чӗл@@ 5
çул 5
кӑ@@ 5
ăм@@ 5
мар! 5
анне 5
енне 5
урал@@ 5
ž@@ 5
ллен 5
палла@@ 5
є@@ 5
вырӑн@@ 5
Ν@@ 5
č 5
Ι@@ 4
Ο@@ 4
ҫухал@@ 4
нисем 4
ăх@@ 4
нĕ 4
ĕмĕ@@ 4
″@@ 4
-ха… 4
тĕр@@ 4
çи@@ 4
、@@ 4
вӗрен@@ 4
Í@@ 4
մ@@ 4
է@@ 4
ļ@@ 4
σ@@ 4
ṣ@@ 4
ʒ@@ 4
вӗт 4
хӑма 4
ăх 4
ˌ@@ 4
ʔ@@ 4
шӑ@@ 4
сӑ@@ 4
ăш@@ 4
ӣ@@ 4
чĕ 4
хура 4
ɡ@@ 4
ҫил@@ 4
ū@@ 4
пӗр 4
лахи 4
ǎ@@ 4
кри 4
шă@@ 4
рӑ@@ 4
學@@ 4
堂@@ 4
мӗ@@ 4
Ö@@ 4
шши 4
و@@ 4
· 4
呼@@ 4
兰@@ 4
府@@ 4
ʁ@@ 4
Ҫы@@ 4
ق@@ 4
ت@@ 4
Ł@@ 4
шех 4
ĕ. 4
ნ@@ 4
вут-@@ 4
ი@@ 4
~ 4
ĕпе 4
рипе 4
Ӗ@@ 4
í 4
Ü@@ 4
ҫӗ@@ 4
Ү@@ 4
ҫ 4
Ӑ 4
Ӗ 4
ӗ, 4
Ҫ 4
Ӳ 4
Ă 4
Ĕ 4
Ӏ@@ 4
Мана 4
φ@@ 4
ҫул@@ 4
ש@@ 4
ׁ@@ 4
ď@@ 4
месле@@ 4
çă 4
Ҫӑ@@ 4
куҫ@@ 4
ن@@ 4
касса 4
пĕ@@ 4
скер 4
ѧ 4
лӗ@@ 4
Ν 4
эс 4
ی 4
س@@ 4
Β@@ 3
Ω@@ 3
Σ 3
илсе 3
нӗ 3
сӑр 3
рӑн@@ 3
масть. 3
ɨ@@ 3
Хӗ@@ 3
ранпа 3
хĕ@@ 3
½@@ 3
東@@ 3
京@@ 3
кӗнеке@@ 3
липе 3
Тӑ@@ 3
ксем 3
卦@@ 3
ӓ@@ 3
ւ@@ 3
ջ@@ 3
хресчен@@ 3
½ 3
Մ@@ 3
ĕсем 3
ллӑ 3
тӗрӗ@@ 3
туя@@ 3
-ха 3
халăх 3
̣@@ 3
Ӯ@@ 3
шанса 3
хыт@@ 3
йĕр@@ 3
келен@@ 3
$ 3
←@@ 3
І 3
ω@@ 3
ν 3
пире 3
пиҫих@@ 3
≈ 3
子@@ 3
ἀ@@ 3
вĕ 3
малаш@@ 3
сике@@ 3
南@@ 3
илет. 3
ксен 3
Ҫам@@ 3
хӗҫ@@ 3
× 3
енчи 3
ك@@ 3
те:— 3
Пӗр@@ 3
ĕнчи 3
ҫӗр@@ 3
шӳ@@ 3
è 3
η 3
} 3
‒ 3
ӳ 3
ҫӑ@@ 3
тӗр 3
спа 3
юрӑ@@ 3
турт@@ 3
тса, 3
ӗнче, 3
ятне 3
ა@@ 3
რ@@ 3
ლ@@ 3
йĕ 3
下@@ 3
º 3
никама 3
есси 3
Ҫу@@ 3
上@@ 3
ù 3
Ё 3
Щ 3
Ӳ@@ 3
ҫ, 3
Ç 3
Ÿ 3
ӕ@@ 3
ʃ@@ 3
мра 3
валхи 3
ه 3
ş 3
лӑ@@ 3
лне 3
© 3
хине 3
ӗн 3
вӗсем 3
çурал@@ 3
ب@@ 3
илт@@ 3
трен 3
пула 3
μ@@ 3
вара? 3
лӗ, 3
հ@@ 3
çыр@@ 3
алли 3
пулин 3
лăх 3
│ 3
Ĕ@@ 3
пур. 3
ز@@ 3
тсен 3
¬@@ 3
хама 3
лекен@@ 3
кама 3
⊗ 3
малли 3
чӗ 3
Š@@ 3
Π@@ 3
суна@@ 3
ў@@ 3
ѧ@@ 3
хула 3
տ@@ 3
пула@@ 3
Вара 3
тарха@@ 3
ı 3
Эпир 3
Ⅹ@@ 3
ᠬ@@ 3
☉@@ 3
ԓ@@ 3
ппин 3
қ@@ 3
ı@@ 3
̌ 3
Ε@@ 2
Τ@@ 2
Μ@@ 2
ӗл@@ 2
ҫӗн@@ 2
киле 2
Ă@@ 2
ăн 2
паян@@ 2
килет@@ 2
чӑн@@ 2
кил 2
．@@ 2
текен 2
İ@@ 2
†@@ 2
сыв@@ 2
Ա@@ 2
Կ@@ 2
Каҫ@@ 2
патша@@ 2
[ 2
ɐ@@ 2
таракан 2
շ@@ 2
вăл 2
υ@@ 2
ά@@ 2
¼ 2
ҫых@@ 2
川@@ 2
Ъ@@ 2
лару@@ 2
Юлашки 2
ś 2
хине, 2
ринчи 2
` 2
ланса 2
шкул@@ 2
аэ@@ 2
мĕш 2
тесе, 2
芥@@ 2
園@@ 2
ǐ@@ 2
вĕсем 2
ḫ@@ 2
чуп@@ 2
рашта@@ 2
чӗ: 2
лӑха 2
пӗрле 2
ҫа@@ 2
ҫум@@ 2
йӗн@@ 2
ӈ@@ 2
江@@ 2
師@@ 2
Á@@ 2
¦@@ 2
¦ 2
терме 2
ą 2
Ḥ@@ 2
усӑ 2
ҫу@@ 2
Λ 2
тесен 2
пĕл@@ 2
劉@@ 2
´@@ 2
―@@ 2
®@@ 2
县@@ 2
хыв@@ 2
йӑ@@ 2
ксене 2
шӑл@@ 2
кӗрӗ@@ 2
тата? 2
त@@ 2
нӑҫ@@ 2
хипе 2
ǝ@@ 2
ě 2
юлташ@@ 2
荀@@ 2
ӑс@@ 2
ҡ@@ 2
нӑ 2
ò@@ 2
вĕç@@ 2
ерех 2
Ҫӗнӗ 2
§@@ 2
ไ@@ 2
ʰ@@ 2
” 2
илес@@ 2
ქ@@ 2
თ@@ 2
უ@@ 2
ე@@ 2
ა 2
繫@@ 2
辭@@ 2
аллине 2
ӗҫ 2
рӗ. 2
च@@ 2
ा@@ 2
զ@@ 2
сых@@ 2
ń@@ 2
лӑк 2
кӗне@@ 2
лекен 2
паллă 2
сӗ@@ 2
ř@@ 2
вула@@ 2
хӗр 2
ɣ@@ 2
象@@ 2
Ө 2
Ү 2
Һ 2
Ъ 2
周@@ 2
унпа 2
пек. 2
пилӗк 2
ɾ@@ 2
ü 2
Эпӗ 2
пӗчӗкҫӗ 2
сапа@@ 2
ć@@ 2
پ@@ 2
چ@@ 2
пулма 2
ą@@ 2
̄@@ 2
Хура 2
ß 2
彖@@ 2
тӑрӑх@@ 2
кайӑк 2
Чӗр@@ 2
мӗл 2
ð@@ 2
آ@@ 2
черен 2
י@@ 2
ק 2
алла 2
ù@@ 2
çар@@ 2
美@@ 2
рӑм 2
ј@@ 2
канаш@@ 2
хули 2
ҫеҫ 2
манса 2
нӑ, 2
յ@@ 2
き 2
ланма 2
кăн@@ 2
Пӗтӗм 2
─@@ 2
长@@ 2
ي@@ 2
寺 2
ӳр@@ 2
ң 2
ÿ 2
рӑм@@ 2
ғ@@ 2
ý 2
авалхи 2
пӗр@@ 2
лӗ 2
ὸ@@ 2
η@@ 2
 @@ 2
сесс@@ 2
вха@@ 2
пурнӑ@@ 2
юла@@ 2
Тӗрӗ@@ 2
кайма 2
мар… 2
кӗр@@ 2
чыла@@ 2
усал 2
Č 2
ž 2
Š 2
Ž 2
çы@@ 2
ë 2
васка@@ 2
徳@@ 2
екен@@ 2
陵@@ 2
福@@ 2
ø@@ 2
Å@@ 2
ζ@@ 2
тарт@@ 2
ʿ@@ 2
сухал@@ 2
пек, 2
գ@@ 2
ք@@ 2
вӑ@@ 2
ҫыру@@ 2
ҫӑ 2
вăхă@@ 2
эп 2
Ә@@ 2
Кам 2
α 2
年@@ 2
施 2
Ž@@ 2
ѵ@@ 2
ирĕ@@ 2
ҥ@@ 2
̃@@ 2
ракан 2
сенче 2
，@@ 2
ӗҫ@@ 2
ã@@ 2
Ⅿ@@ 2
ᠠ@@ 2
Мускав 2
ی@@ 2
ن 2
≈@@ 2
स@@ 2
тӑрӑ@@ 2
म@@ 2
պ@@ 2
լ@@ 2
ը@@ 2
сахал@@ 2
҃@@ 2
ĕш@@ 2
孔@@ 2
пӑ@@ 2
урам@@ 2
Ө@@ 2
Çур@@ 2
ӗр, 2
тисем 2
̌@@ 2
малтанхи 2
µ@@ 2
ك 2
тутӑр@@ 2
ӱ@@ 2
ف@@ 2
Ў@@ 1
Ρ@@ 1
Υ@@ 1
Υ 1
Η@@ 1
чӗр@@ 1
ҫын@@ 1
£@@ 1
藍 1
нӑй 1
сенчи 1
тӑвакан 1
тӑват@@ 1
кунах 1
хир 1
§ 1
Кашни 1
каят@@ 1
пултар@@ 1
кӑ 1
岩@@ 1
波@@ 1
書@@ 1
店@@ 1
тӗлӗ@@ 1
Ҫи@@ 1
序@@ 1
Þ@@ 1
ӹ 1
пурри 1
ւ 1
стре — 1
ты-Ман@@ 1
ż@@ 1
ύ@@ 1
тӗл@@ 1
Вӑр@@ 1
說@@ 1
ʾ@@ 1
вăр@@ 1
拔@@ 1
塞@@ 1
干 1
ҫин@@ 1
уйӑх 1
шуса 1
ʒ 1
ɕ@@ 1
ʃ 1
̯ 1
чухне@@ 1
ղ 1
Բ 1
世@@ 1
龍@@ 1
Љ 1
ἰ@@ 1
歌@@ 1
広@@ 1
重@@ 1
кӳр@@ 1
Цюань@@ 1
пӑл@@ 1
тӑк@@ 1
马@@ 1
国@@ 1
凡@@ 1
мухта@@ 1
хавха@@ 1
Κ@@ 1
пулман@@ 1
€ 1
Кӑ@@ 1
рисем 1
тӗм@@ 1
サ@@ 1
ド@@ 1
侯@@ 1
爵@@ 1
夫@@ 1
人 1
畫@@ 1
譜@@ 1
ǔ@@ 1
çи 1
ӗн, 1
-им 1
潮@@ 1
騒 1
цие 1
水@@ 1
礦@@ 1
路@@ 1
陸@@ 1
北 1
吴@@ 1
湘@@ 1
赣@@ 1
客@@ 1
家@@ 1
粤@@ 1
闽@@ 1
хаҫа@@ 1
хӗрарӑ@@ 1
ű@@ 1
илтер@@ 1
Ҫӳл@@ 1
Юхан@@ 1
хут 1
туртса 1
тунӑ 1
秀@@ 1
支 1
替@@ 1
戾@@ 1
剛 1
僕@@ 1
谷 1
劬@@ 1
禿@@ 1
當@@ 1
軍 1
出 1
曜@@ 1
胡@@ 1
位 1
捉@@ 1
ا 1
ڤ@@ 1
憂@@ 1
国 1
пуҫ 1
апат 1
ҫитер@@ 1
ӗр@@ 1
çур@@ 1
अ@@ 1
र@@ 1
ि@@ 1
ह@@ 1
न@@ 1
тӳ@@ 1
况@@ 1
卿@@ 1
ع@@ 1
ز 1
Паян 1
ҫурал@@ 1
пулта@@ 1
Ó@@ 1
тӑм@@ 1
Ҫул 1
курӑ@@ 1
тӗн@@ 1
ฤ@@ 1
ท@@ 1
ธ@@ 1
ิ@@ 1
์@@ 1
ด@@ 1
า@@ 1
บ@@ 1
ม@@ 1
้@@ 1
ผ@@ 1
่@@ 1
ŋ 1
ː 1
ò 1
ი 1
кене 1
შ@@ 1
უ 1
文@@ 1
言@@ 1
тапра@@ 1
य 1
მ@@ 1
ზ@@ 1
դ@@ 1
ҫӗршыв 1
ŭ 1
中@@ 1
華@@ 1
字@@ 1
海@@ 1
ṓ@@ 1
палă@@ 1
š 1
ĭ@@ 1
⅔ 1
Ӈ 1
ө 1
͡@@ 1
ɯ@@ 1
ܦ@@ 1
ܪ@@ 1
ܬ 1
хӑй@@ 1
易@@ 1
ʂ@@ 1
ӳл@@ 1
Анчах 1
ҫинчен 1
калаҫма 1
тӑра@@ 1
килӗш@@ 1
мерӗ. 1
аран 1
пулнă. 1
π 1
чӳ@@ 1
пӗ@@ 1
ᵑ@@ 1
тăн 1
Ҫӗр@@ 1
тавра@@ 1
思@@ 1
孟@@ 1
派@@ 1
хӗрарӑм@@ 1
тулта@@ 1
ʌ@@ 1
вайхи 1
сӑм@@ 1
ę@@ 1
районĕнче 1
ҫуна@@ 1
ллӗ 1
патшалӑх 1
рӗсем 1
тӑш@@ 1
икӗ 1
Аслă 1
©@@ 1
ê 1
ҫап@@ 1
Часах 1
хамӑр 1
кӑра 1
кӑна 1
ытти 1
пурӑнакан 1
ҫит@@ 1
рӗҫ. 1
‿@@ 1
тӑвай@@ 1
вӑй@@ 1
⊥@@ 1
эпир, 1
ɔ 1
ϸ@@ 1
گ@@ 1
унта, 1
патшалăх 1
ʊ@@ 1
真@@ 1
夏@@ 1
死 1
ִ@@ 1
ַ@@ 1
курман 1
ų 1
し@@ 1
い@@ 1
星 1
хăй@@ 1
картиш@@ 1
雜@@ 1
сран 1
♃@@ 1
турта@@ 1
王 1
ἤ@@ 1
鏡@@ 1
家 1
ҫӳл@@ 1
пӗчӗк 1
ҫинҫе 1
пилӗ@@ 1
тӑрӑх 1
ҫӳренӗ 1
чух 1
вӑл 1
качча 1
кайнине 1
хӑйӗн 1
улӑш@@ 1
тарас 1
ҫуккине 1
ҫине 1
кӑмӑллӑн 1
пӑх@@ 1
хавас@@ 1
сӑн 1
калаҫ@@ 1
нӑ. 1
пикен@@ 1
-ши, 1
愛@@ 1
渇@@ 1
ҫ. 1
тăр 1
ቀ@@ 1
ይ@@ 1
ሕ 1
ባ@@ 1
ሕ@@ 1
ሪ@@ 1
тупа 1
кӑва@@ 1
улта@@ 1
кпа 1
└@@ 1
─ 1
тавра 1
ланса, 1
юса@@ 1
тултар@@ 1
正@@ 1
政@@ 1
ø 1
沙@@ 1
征@@ 1
雪@@ 1
答@@ 1
李@@ 1
淑@@ 1
一@@ 1
咏@@ 1
梅@@ 1
خ 1
йывӑҫ@@ 1
рӑн 1
лӑн 1
вӗҫ@@ 1
шелле@@ 1
暁@@ 1
Ӑ@@ 1
Є@@ 1
ӧ@@ 1
λ 1
юрла@@ 1
җ@@ 1
æ 1
сарла@@ 1
шыра@@ 1
салта@@ 1
шӑн@@ 1
ланӑ@@ 1
вӗн 1
сасӑ@@ 1
安@@ 1
都@@ 1
护@@ 1
 @@ 1
хӗрарӑм 1
чӗк@@ 1
хӑрах 1
клӑ 1
тӗ 1
ӗнтӗ@@ 1
ŷ 1
є 1
Ἐ@@ 1
ἔ@@ 1
ح@@ 1
ّ@@ 1
م 1
пуҫ@@ 1
чченхи 1
̀ 1
тнӑ 1
ҫӗр 1
ҫинче, 1
шурӑ 1
нӑ@@ 1
£ 1
ччӗ@@ 1
ӳп@@ 1
ӗн@@ 1
лисем 1
ǔ 1
такам 1
пĕр@@ 1
宴@@ 1
あ@@ 1
と 1
ҫыр@@ 1
курай@@ 1
юратса 1
¾ 1
ех, 1
礼 1
禮@@ 1
мӑш@@ 1
Тӗ@@ 1
Ä 1
чĕн 1
『@@ 1
幕@@ 1
事@@ 1
典@@ 1
』 1
出@@ 1
版@@ 1
． 1
Å 1
沈@@ 1
阳@@ 1
东@@ 1
Æ@@ 1
Ø@@ 1
ϰ@@ 1
ѣ 1
∫@@ 1
ſ 1
ε 1
шӑр@@ 1
ҫӑн 1
わ@@ 1
が@@ 1
友@@ 1
ヒ@@ 1
ッ@@ 1
ト@@ 1
ラ@@ 1
ー 1
чул 1
юхан@@ 1
мӑ@@ 1
ертсе 1
ӑшӑ@@ 1
такан 1
ҫы@@ 1
патне 1
янӑ 1
реестр@@ 1
тӗрт@@ 1
Муска@@ 1
мӗр 1
淳@@ 1
維@@ 1
лӗх 1
ҫутат@@ 1
тӑр 1
Ҫе@@ 1
пӗл@@ 1
вӗ 1
пуян@@ 1
ì 1
ыран 1
五@@ 1
行 1
юнашар 1
奔@@ 1
馬 1
Ғ@@ 1
вырта@@ 1
кипе 1
ψ@@ 1
тарас@@ 1
月@@ 1
岡@@ 1
芳@@ 1
突@@ 1
骑@@ 1
ѓ@@ 1
Ґ 1
ґ 1
ĕмĕр@@ 1
金@@ 1
閣@@ 1
ţ@@ 1
	 1
ринче 1
шӗ@@ 1
мӑй@@ 1
курас 1
⋅@@ 1
пуян 1
Ó 1
хальхи 1
ꆈ@@ 1
ꌠ@@ 1
ꁱ@@ 1
ꂷ 1
скер, 1
чӗсем 1
ì@@ 1
ǎ 1
кĕре@@ 1
Ξ@@ 1
лалла 1
ή 1
кӑр@@ 1
ленине 1
скер. 1
¾@@ 1
恨@@ 1
不@@ 1
生@@ 1
三@@ 1
百@@ 1
前@@ 1
為@@ 1
青@@ 1
藤@@ 1
磨@@ 1
墨@@ 1
理@@ 1
紙@@ 1
нĕ. 1
Хӗра@@ 1
пурин 1
хинче 1
миҫе 1
ḏ@@ 1
ӹ@@ 1
кĕ 1
迪@@ 1
化 1
ѳ@@ 1
ĕс@@ 1
манран 1
ῆ@@ 1
пурте 1
тсе 1
ӗмӗр 1
ҫынни@@ 1
Ⅽ@@ 1
Ⅼ@@ 1
Ⅷ@@ 1
ᠯ@@ 1
᠎@@ 1
ᠠ 1
ᠢ@@ 1
ᠶ@@ 1
ᠭ@@ 1
ᠲ@@ 1
ᠤ@@ 1
вăй@@ 1
ə 1
ذ@@ 1
ج@@ 1
ک@@ 1
лӑп@@ 1
ं@@ 1
क@@ 1
ृ@@ 1
व@@ 1
ē 1
ḍ@@ 1
ǖ@@ 1
шанчӑк@@ 1
Эс 1
呐@@ 1
喊@@ 1
вӑрман@@ 1
пит-@@ 1
ब@@ 1
ु@@ 1
द@@ 1
ध 1
ध@@ 1
佛@@ 1
教 1
йӑх 1
витӗр 1
ҫул 1
курӑна@@ 1
☉ 1
сипе 1
утӑ 1
ԓ 1
Ä@@ 1
унӑн 1
тусӗ@@ 1
է 1
Ս@@ 1
ի 1
ырат@@ 1
ǒ@@ 1
勿@@ 1
忘@@ 1
草@@ 1
аван 1
ҷ@@ 1
徹@@ 1
孝@@ 1
武@@ 1
皇@@ 1
帝@@ 1
Сыв@@ 1
паллаш@@ 1
шӑл 1
圓@@ 1
ف 1
よ@@ 1
ろ@@ 1
め@@ 1
ꆇ@@ 1
ꉙ 1
҂@@ 1
ѕ@@ 1
҃ 1
ѹ@@ 1
вăн 1
хуҫ@@ 1
алӑх 1
хыççăн 1
₨@@ 1
Қ@@ 1
қ 1
丘 1
仲@@ 1
尼 1
Ô 1
лӗк@@ 1
ларта@@ 1
├@@ 1
仮@@ 1
面@@ 1
告@@ 1
白 1
Эп 1
À 1
ăç 1
清@@ 1
хыҫ@@ 1
лĕх@@ 1
ʈ@@ 1
˚@@ 1
鼠@@ 1
尼@@ 1
ӗҫле@@ 1
сессӗн, 1
пулмасть 1
масть, 1
മ@@ 1
ല@@ 1
യ@@ 1
ാ@@ 1
ള@@ 1
ം@@ 1
特@@ 1
普@@ 1
欽@@ 1
-ха. 1
ҫи 1
сӑн@@ 1
ṙ@@ 1
Վ@@ 1
ն 1
բ@@ 1
ժ@@ 1
Հ@@ 1
ս 1
ս@@ 1
урама 1
уйăх@@ 1
̞@@ 1
хула@@ 1
ä 1
Ҥ 1
кайӑ@@ 1
წ@@ 1
ирӗк@@ 1
уҫӑ@@ 1
ӑш@@ 1
Æ 1
Œ 1
Җ@@ 1
ăç@@ 1
Пӑ@@ 1
текен@@ 1
пулас@@ 1
шӑн 1
чӗлхе@@ 1
хулине 1
лӑхӗ@@ 1
расси 1
ŕ@@ 1
Ɣ@@ 1
Ǧ@@ 1
ǧ 1
Ǩ@@ 1
ǩ 1
Ş@@ 1
Ť@@ 1
͏@@ 1
Ǯ@@ 1
ǯ@@ 1
чĕсем 1
ремĕш 1
çĕн@@ 1
шӑп@@ 1
ҫӗпе 1
кӗ 1
µ 1
ğ@@ 1
ې@@ 1
ە@@ 1
ڭ 1
ۆ@@ 1
ӳллӗ 1
仁 1
義 1
禮 1
智 1
мӑр 1
ή@@ 1
тыта@@ 1
хума 1
çинче 1
Сана 1
урапа 1
ص@@ 1
>@@ 1
> 1
⅛ 1
处@@ 1
木@@ 1
昆@@ 1
儿@@ 1
Шыв 1
ӗҫӗ@@ 1
ὸ 1
илнӗ 1
Чӑ@@ 1
чере 1
Нумай 1
ń 1
±@@ 1
тухать. 1
çĕр 1
хыçç@@ 1
апат@@ 1
د@@ 1
ﻫ@@ 1
ﺎ@@ 1
эсӗ 1
пӗччен 1
калаҫса 1
пӑха@@ 1
тӑн 1
сӗн@@ 1
太@@ 1
陽@@ 1
と@@ 1
鉄 1
ł 1
пурă@@ 1
樹@@ 1
人@@ 1
Халӑх 1
лӗ. 1
пичет@@ 1
кашни 1
¡@@ 1
систер@@ 1
ð 1
тенӗ 1
вӑл. 1
Œ@@ 1
