— 367105
те 152667
та 126781
вӑл 75232
сем 73583
-@@ 67703
ҫине 52339
пек 49966
ӑна 49606
па 47076
, 46839
«@@ 46026
тата 44716
сене 44700
! 44629
не 43672
ма 42939
т@@ 41705
ра 40135
. 39393
па@@ 39054
пӗр 38300
нӑ 37463
тӑ@@ 36846
сен 36438
та@@ 36331
ла@@ 35594
р 35299
ҫинчен 34940
ту@@ 34872
А@@ 33776
эпӗ 33689
с 33443
пе 32741
Вӑл 32611
а@@ 32568
… 32474
т 32383
те, 31990
я@@ 31588
? 30874
ма@@ 30825
ран 30726
е 30595
л@@ 30430
ка@@ 30158
ни 29429
вара 29359
к@@ 29323
мӗн 28492
тесе 28358
: 28280
ун 28015
са 27932
ка 27930
ри 27843
ху@@ 27698
семпе 26878
ш@@ 26557
н 26508
м@@ 26157
анчах 26035
хӑй 25931
те@@ 25720
чӗ 25642
ман 25444
к 25027
Эпӗ 24955
на 24918
ҫав 24641
та, 24542
кӗ@@ 24403
п@@ 24386
» 24228
с@@ 24008
нӗ 23969
(@@ 23905
х@@ 23268
кала@@ 22978
терӗ 22942
са, 22693
се 22577
унӑн 22193
ку@@ 21991
кӑ@@ 21888
лӑ 21794
хӑ@@ 21737
са@@ 21726
вӗсем 21668
у@@ 21648
нине 21559
ме 21257
ра@@ 21225
нӑ. 21043
патне 20957
чӗ. 20924
м 20849
пу@@ 20636
ил@@ 20619
й@@ 20235
кил@@ 20109
шӑ@@ 19913
кай@@ 19793
ха@@ 19755
ҫу@@ 19707
ле@@ 19434
Анчах 19322
кӑна 19280
сем, 19239
р@@ 19097
на@@ 19049
лӑ@@ 18987
хӑйӗн 18818
нӑ, 18774
ҫинче 18700
ҫҫӗ. 18657
каласа 18324
; 18269
лӗ 18262
нӑ@@ 18231
ӗ 18142
мана 18056
лан@@ 17865
ни@@ 17761
тар@@ 17746
ҫеҫ 17743
ҫӑ@@ 17670
в@@ 17624
мар 17401
рӗ 17398
ти@@ 17253
ан@@ 17190
пул@@ 17097
в 17078
ҫи@@ 17067
тӗ@@ 16915
йӑ@@ 16740
пӑ@@ 16650
ӑ@@ 16105
ҫ@@ 16064
) 16003
ва@@ 15973
ҫын 15889
чӑ@@ 15833
ĕ 15818
ла 15745
чӗ, 15680
ша@@ 15589
н@@ 15584
ç@@ 15492
рӗ. 15429
ӗнче 15367
ӗн@@ 15305
и 15268
ҫак 15180
л 15138
рах 15116
мӗнле 15105
мӑ@@ 15089
ӗ@@ 14971
шыв 14872
тӑр@@ 14838
ӗҫ@@ 14798
сенчен 14673
кур@@ 14522
ю@@ 14354
нипе 14337
пулса 14323
чи 14302
чӗ@@ 14289
илсе 14279
ӗн 14279
рӑ@@ 14248
ч@@ 14190
тер@@ 14141
ре 14092
ă@@ 14056
У@@ 14041
К@@ 13960
э@@ 13955
ме@@ 13938
С@@ 13928
-ха 13913
-и? 13877
ре@@ 13874
не@@ 13833
ҫҫӗ, 13796
рӗ, 13665
р, 13630
ти 13623
ви@@ 13465
ча@@ 13455
ин@@ 13431
мар, 13280
ан 13268
ли@@ 13197
ва 13146
ен@@ 13079
ҫӗр 13029
пирӗн 12963
пӑх@@ 12935
ть, 12922
ӗнтӗ 12880
пы@@ 12880
ҫӗ@@ 12865
ман@@ 12841
ласа 12835
ҫапла 12794
ĕ@@ 12710
ш 12680
ку 12673
ри@@ 12648
си@@ 12579
сӑ@@ 12510
ҫа@@ 12448
Ка@@ 12411
вӑ@@ 12379
ть 12369
рт@@ 12341
пи@@ 12321
лӗ@@ 12280
ке@@ 12275
ланса 12256
тух@@ 12203
тса 12178
вӗсене 12160
хи 12158
пӑхса 12125
пӗ@@ 12076
е@@ 12064
хыҫҫӑн 11992
я 11976
д@@ 11923
чухне 11820
рӗ@@ 11753
Т@@ 11734
эпир 11708
кан@@ 11666
сан 11640
пулин 11621
сӑр 11524
икӗ 11456
ӳ@@ 11437
тарса 11400
й 11383
ки@@ 11352
су@@ 11341
чӗҫ. 11335
вӑл, 11246
сенче 11236
пулсан, 11193
кун@@ 11162
тан 11156
ĕн 11148
пуҫ@@ 11124
лен@@ 11100
х, 11096
ӗнчен 11067
ҫул 11000
пӗр@@ 10995
кан 10971
пекех 10964
шӗн 10964
и@@ 10951
шутла@@ 10746
пысӑк 10716
пӗл@@ 10712
тепӗр 10690
ине 10672
Ма@@ 10662
питӗ 10657
ун@@ 10574
ҫӗр@@ 10538
г@@ 10507
хут 10481
лӑх 10435
тухса 10425
эсӗ 10395
лӑн 10363
Са@@ 10330
пур@@ 10288
х 10255
сӗ@@ 10240
кун 10210
Х@@ 10208
хӗ@@ 10163
о@@ 10158
ер@@ 10126
нӗ. 10119
Ку 10048
ар@@ 9986
тӳ@@ 9971
тӑрӑх 9952
кӗр@@ 9947
се, 9915
йӗ@@ 9908
Мӗн 9872
-ха, 9860
хӗр@@ 9847
ть. 9833
ле 9795
ф@@ 9792
н, 9719
.@@ 9685
унтан 9676
мар@@ 9664
пат@@ 9611
Э@@ 9582
пӗтӗм 9557
пурте 9527
хӑйне 9524
пур 9505
м, 9413
п 9403
пырса 9391
ӗҫ 9387
ль@@ 9384
рен 9318
нимӗн 9273
ҫул@@ 9271
чӗр@@ 9251
шӑн 9223
ут@@ 9210
тума 9185
чи@@ 9161
пек, 9154
кайрӗ. 9126
И@@ 9125
ксем 9121
ҫит@@ 9099
лайӑх 9094
шу@@ 9087
-и 9082
тӗр@@ 9078
пуҫне 9067
каллех 9057
тӑра@@ 9047
пӗрле 9047
пӗлтер@@ 9008
р. 8999
малли 8971
унта 8960
ӑ 8953
4@@ 8938
Ш@@ 8927
ҫ 8891
малла 8874
ро@@ 8868
мӗншӗн 8863
», 8848
Эсӗ 8840
пулнӑ. 8833
кунта 8813
б@@ 8807
ми@@ 8792
 — 8762
ех 8755
пе@@ 8753
пуҫла@@ 8726
тӑр 8723
сан, 8716
Вӗсем 8712
нӗ@@ 8702
тӑва@@ 8688
вӑл. 8671
туса 8635
у 8594
а 8593
сах 8573
ҫынсем 8569
ть@@ 8547
тыт@@ 8523
вӗ@@ 8489
се@@ 8489
тӑн@@ 8484
нӗ, 8474
мӗ@@ 8464
мен@@ 8442
М@@ 8437
кая@@ 8435
кайнӑ 8433
ран@@ 8401
илчӗ. 8387
В@@ 8375
халӗ 8369
ҫҫӗ 8359
Ч@@ 8321
кирлӗ 8320
ст@@ 8274
сӗр 8269
ҫын@@ 8262
Ку@@ 8261
пирки 8260
хи@@ 8254
пула@@ 8237
тери 8218
ко@@ 8211
Та@@ 8201
3@@ 8188
к, 8136
вил@@ 8130
рӑн@@ 8118
сана 8111
ал@@ 8069
масӑр 8034
хы@@ 8024
че@@ 8008
май 7997
сен@@ 7995
ци@@ 7981
ленсе 7970
т, 7955
ру@@ 7954
манӑн 7949
ь@@ 7947
пулнӑ 7934
ми 7933
ди@@ 7922
тан@@ 7904
П@@ 7883
рӗҫ. 7813
вӗҫ@@ 7801
Я@@ 7794
ки 7776
ӗ, 7737
ҫӳре@@ 7718
Ю@@ 7675
юл@@ 7666
нах 7663
лса 7662
кен 7653
пулсан 7653
нумай 7642
рса 7641
чу@@ 7636
эсир 7635
лар@@ 7630
Ҫак 7611
рат@@ 7588
ҫук 7585
ирт@@ 7555
пӑр@@ 7508
Л@@ 7505
рӑм 7488
хӑра@@ 7479
Эпир 7458
тӑн 7400
О@@ 7346
Унӑн 7342
6@@ 7328
са. 7302
ц@@ 7288
хирӗҫ 7273
ь 7269
5@@ 7262
ҫавӑн 7261
сан@@ 7261
ир@@ 7253
ет@@ 7235
тӑп. 7193
з@@ 7170
сси 7170
мо@@ 7127
пӑха@@ 7113
ыйтрӗ 7104
то@@ 7090
шухӑшла@@ 7090
не, 7078
ра, 7072
ци 7071
ура@@ 7069
ба@@ 7051
сӑмах 7017
кӗ 6992
тара@@ 6988
ччен 6970
вӗсен 6966
Па@@ 6965
т. 6957
вӑй@@ 6956
вӑр@@ 6939
тытса 6912
пӗле@@ 6891
килӗш@@ 6886
сӑр@@ 6871
тен 6847
,@@ 6834
лӗн 6831
но@@ 6822
х. 6813
ӗнтӗ, 6795
7@@ 6745
кул@@ 6745
ача@@ 6732
хам 6726
валли 6717
йӗр@@ 6678
хуш@@ 6670
ша 6667
ке 6663
д 6661
тӑракан 6660
мӗн@@ 6642
ӳ 6636
пултарай@@ 6627
хушшинче 6625
мен 6617
умӗнче 6612
вӗрен@@ 6602
илт@@ 6600
кă@@ 6578
Ун 6573
ха 6571
Ҫав 6566
), 6564
пӗчӗк 6544
ӗр@@ 6538
сем@@ 6535
чӗҫ, 6523
илчӗ 6507
лесе 6491
тă@@ 6482
вӑхӑтра 6473
чӗн@@ 6467
ву@@ 6450
му@@ 6443
ӳк@@ 6414
ним 6376
Б@@ 6363
тен@@ 6308
8@@ 6304
пулать. 6301
тӑп, 6293
тет@@ 6282
тенӗ 6276
ль 6251
кӗрсе 6241
ҫы@@ 6215
кĕ@@ 6212
халь 6202
кине 6190
ул@@ 6188
лӑх@@ 6186
вырӑн@@ 6178
пӗтер@@ 6164
куҫ@@ 6158
ллӑ 6148
ик@@ 6143
Г@@ 6135
тӑм. 6092
ҫук. 6080
хӑйсен 6070
пар@@ 6057
Е@@ 6049
сене, 6040
лет@@ 6038
чӗ: 6031
малалла 6030
Ф@@ 6027
пара@@ 6021
лĕ 6018
ы@@ 6003
кар@@ 6000
ĕнче 5987
мар. 5986
ҫыр@@ 5981
сен, 5977
хӑва@@ 5969
юра@@ 5955
тӗп@@ 5946
шӗ@@ 5942
пурне 5935
хал@@ 5902
Ну, 5895
калама 5890
пултара@@ 5871
-мĕш 5858
шӗ 5846
ӗнчи 5833
да 5829
9@@ 5828
кам 5824
еннелле 5819
0 5818
алӑ@@ 5788
пӑрах@@ 5785
Ха@@ 5779
сире 5766
тӑчӗ. 5763
курӑн@@ 5758
Ко@@ 5750
тесе, 5748
пурӑна@@ 5744
тытӑн@@ 5741
рӑм@@ 5741
ҫил@@ 5726
Ту@@ 5725
пире 5724
кайса 5724
де@@ 5718
кӗре@@ 5708
Хӑ@@ 5701
Пу@@ 5696
Ми@@ 5676
ве@@ 5675
тӑм@@ 5660
ман. 5659
ста@@ 5659
Ӑна 5637
ҫур@@ 5628
чух 5615
тӑп 5612
ай@@ 5610
каялла 5608
-ха. 5607
ытла 5593
калаҫ@@ 5588
да@@ 5581
тунӑ 5574
Акӑ 5568
шухӑш@@ 5557
ло@@ 5543
лă 5538
нă. 5530
ял@@ 5508
хă@@ 5480
сӗр@@ 5474
до@@ 5469
рас@@ 5455
нисем 5444
аллине 5442
рӑн 5441
сирӗн 5438
тӗн@@ 5436
тсе 5435
лта@@ 5420
на, 5416
Совет 5409
хут@@ 5404
кӑлар@@ 5402
Эсир 5400
i@@ 5396
вар@@ 5393
лек@@ 5393
темиҫе 5391
Ва@@ 5378
хура 5362
Р@@ 5362
ăн 5358
епле 5357
тет 5356
туйӑ@@ 5347
тарма 5343
ҫавӑнпа 5338
ҫап@@ 5337
сиксе 5332
ӗ. 5330
й, 5312
ӗҫе 5301
кӑн@@ 5290
кашни 5288
лу@@ 5288
тем 5283
по@@ 5280
ли 5268
тӑрать. 5265
кӑмӑл@@ 5265
урӑх 5242
лат@@ 5242
туп@@ 5234
кайма 5231
ларт@@ 5230
га@@ 5225
ччӗ@@ 5199
кӑн 5192
урлӑ 5178
чен 5175
!.. 5174
Халӗ 5169
ҫук@@ 5163
тесен 5158
Ҫ@@ 5156
малла@@ 5148
Пӗр 5147
рӑм. 5147
пай@@ 5145
лӑха 5145
Д@@ 5138
ма, 5133
че, 5131
ĕ, 5117
кӑр@@ 5108
-и@@ 5103
лӑ, 5103
ытларах 5102
лла 5094
юр@@ 5082
ҫӗнӗ 5081
ҫӗре 5071
e@@ 5051
патӗнче 5044
-и, 5042
инче 5036
Унтан 5025
!» 5019
кулса 5008
тур@@ 5005
йӗ 4996
инчен 4996
вара, 4990
мелле 4981
асӑрха@@ 4973
Ан@@ 4971
илнӗ 4964
Пӗ@@ 4962
Ху@@ 4962
тенӗ. 4959
аса 4938
ярса 4932
илме 4931
ленӗ 4923
кура@@ 4923
нать. 4918
туха@@ 4917
тра 4903
сем. 4899
пурнӑҫ@@ 4897
ж@@ 4897
пех 4896
ат@@ 4895
Пирӗн 4886
кӑшкӑрса 4881
ҫӳ@@ 4879
ӑнлан@@ 4879
ур@@ 4870
ҫин@@ 4869
лӗ, 4868
ыйт@@ 4852
рах@@ 4851
виҫӗ 4846
бо@@ 4845
рта@@ 4833
ывӑ@@ 4826
ну@@ 4825
чупса 4822
сул@@ 4819
май@@ 4813
ас@@ 4808
лӗх@@ 4807
ырӑ 4806
ччӗ, 4799
200@@ 4798
рине 4798
». 4795
чухлӗ 4795
ты@@ 4786
ник@@ 4769
шӑн@@ 4768
рӗҫ, 4767
çа@@ 4766
туртса 4766
ч 4762
тет. 4758
0@@ 4757
ҫӗ 4754
кӑтарт@@ 4750
пурӑн@@ 4749
килсе 4745
чуп@@ 4737
вӗ 4735
ҫҫӗ@@ 4728
На@@ 4721
пӗтӗмпех 4705
е, 4703
сасартӑк 4698
акӑ 4697
пӑр 4695
нех 4677
ӗнен@@ 4674
тӗл@@ 4671
па, 4670
уҫ@@ 4667
тах 4659
ҫумне 4659
кӳ@@ 4654
Ç@@ 4650
хатӗр@@ 4648
мне 4643
ччӗ 4643
ӑн 4641
терсе 4640
ӗнтӗ. 4638
Н@@ 4633
тра@@ 4631
с, 4626
пулчӗ. 4603
ҫинчи 4603
в, 4601
тĕ@@ 4599
лама 4598
Манӑн 4577
ев@@ 4568
кочĕ 4559
он@@ 4558
лаш@@ 4557
ҫи 4555
кӗт@@ 4553
пулнӑ, 4550
пуҫларӗ. 4538
ере@@ 4537
ҫук, 4537
ина 4526
йӗрке@@ 4512
пӗт@@ 4505
за@@ 4503
ей@@ 4501
тин 4496
ск@@ 4495
масть. 4492
тин@@ 4485
тӑм 4484
ав@@ 4483
пулӗ@@ 4479
марӗ. 4478
ытти 4477
пит 4474
никам 4473
хӑвар@@ 4467
Ы@@ 4462
мӑн 4462
каҫ@@ 4461
a@@ 4460
нӑн 4460
юхса 4443
ĕ. 4441
пулма 4435
рай@@ 4429
ка, 4428
чик@@ 4422
t@@ 4414
вӑхӑт 4411
рӗ: 4411
кӑшт 4392
ше@@ 4390
Ҫук, 4388
ни, 4384
малтан 4384
çулта 4375
пер@@ 4372
темле 4370
Вара 4366
рех 4361
скер@@ 4358
Мӗнле 4353
лин@@ 4350
хура@@ 4344
пама 4339
шне 4325
хытӑ 4324
ҫе@@ 4324
ччӗ. 4323
енчен 4315
йывӑр 4313
2 4301
5 4290
сӗтел 4288
пыра@@ 4286
яланах 4269
со@@ 4265
халӑх 4257
ача 4254
пир@@ 4253
ӑҫта 4253
хӑр@@ 4251
хине 4250
тат@@ 4242
рӑм, 4238
ҫакӑн 4235
тӑнӑ 4232
Ла@@ 4228
ман, 4226
тӗл 4220
м. 4220
ев 4219
ян@@ 4219
нӑ; 4217
2@@ 4214
унпа 4211
Ҫапла 4207
вырт@@ 4203
калаҫа@@ 4194
сса 4184
нă 4176
10@@ 4164
мӑр@@ 4160
вырӑнне 4142
пла@@ 4139
чӗҫ 4133
сар@@ 4133
терӗ. 4115
ит@@ 4114
ҫынна 4103
ҫӑ 4100
шурӑ 4099
пе, 4098
По@@ 4094
Пӑ@@ 4092
ҫурт@@ 4068
каларӗ 4065
тап@@ 4057
Союзĕн 4051
шан@@ 4049
хӑй@@ 4048
нӑ: 4045
ĕн@@ 4044
тул@@ 4044
кне 4042
ши@@ 4041
кайнӑ. 4039
сех 4038
ча 4037
пӑр, 4036
ӗн, 4035
тӑрса 4033
тӑрӑш@@ 4031
тӗрлӗ 4005
пӳр@@ 4003
ҫамрӑк 3998
ков 3994
ес@@ 3992
Ҫӳлхуҫа 3968
Тӑ@@ 3962
хӗрлӗ 3955
мелли 3952
юрат@@ 3935
я, 3934
малла. 3928
пӗрре 3916
Си@@ 3910
ор@@ 3907
тухнӑ 3907
кла@@ 3894
патнелле 3891
скер, 3886
ҫав@@ 3884
ый@@ 3884
ник 3876
чарӑн@@ 3875
пит@@ 3875
тсем 3871
лӗх 3870
Пи@@ 3870
кайӑ@@ 3862
тӗлӗн@@ 3857
Ни@@ 3853
чӑн@@ 3851
рен@@ 3842
каланӑ 3842
Патшалăх 3836
- 3832
Ҫу@@ 3825
кон@@ 3825
чун@@ 3821
ҫаврӑн@@ 3811
вӗлер@@ 3811
Юханшыв 3808
нса 3793
пуҫ 3793
таврӑн@@ 3792
чӑк 3786
хур@@ 3782
ура 3781
ячӗ 3780
иртсе 3780
чар@@ 3780
). 3778
пекех, 3770
тӗп 3766
выля@@ 3764
хӳ@@ 3760
кен@@ 3757
кин@@ 3751
сӑмах@@ 3750
1 3746
шут@@ 3742
ть: 3741
го@@ 3738
ĕç@@ 3736
Ар@@ 3736
Мана 3733
ячӗ. 3730
тай@@ 3726
ҫакна 3724
сти@@ 3722
куҫ 3719
ирттер@@ 3717
пус@@ 3707
чен@@ 3703
япала 3701
нов 3697
хамӑр 3695
иле@@ 3695
Ба@@ 3692
тӑнӑ. 3691
ҫӗк@@ 3676
Ки@@ 3676
:— 3672
килнӗ 3671
нисене 3669
Тепӗр 3668
Ҫа@@ 3661
объекчĕн 3657
реестрĕнчи 3656
ван@@ 3656
шал@@ 3654
-ши 3652
мест@@ 3649
пулнине 3647
ланӑ 3635
—@@ 3634
чченех 3632
кĕрет. 3632
хӑвӑрт 3629
про@@ 3627
тӑм, 3627
йышӑн@@ 3621
вӑн 3618
п, 3613
тӑ 3611
тӗм@@ 3610
ларнӑ 3604
масть, 3603
турт@@ 3602
тӳрех 3600
лара@@ 3599
сик@@ 3598
карт@@ 3597
3 3594
4 3582
вă@@ 3582
вырнаҫ@@ 3581
хо@@ 3579
ланнӑ 3574
7 3570
п. 3563
шухӑшласа 3560
пен@@ 3557
ҫапах 3551
u@@ 3548
кӑларса 3543
тма 3542
гварди 3530
рӗн 3529
Мӗншӗн 3524
калаҫма 3518
сс@@ 3513
тӑма 3511
Кунта 3511
район@@ 3506
шка 3501
ҫаврӑнса 3499
кӗтсе 3497
эпӗ. 3496
Пӗр@@ 3492
ачасем 3492
ҫырса 3489
сшӑн 3487
тор@@ 3481
9 3472
Ӗ@@ 3470
Ун@@ 3469
ҫитер@@ 3467
ӗмӗр@@ 3467
тӑк@@ 3465
ла, 3463
пулать, 3461
ӳкер@@ 3460
сă@@ 3459
8 3446
умне 3444
мин@@ 3438
панӑ 3436
кин 3433
6 3431
тум@@ 3431
ҫӳл@@ 3429
ҫынсене 3428
йы@@ 3425
илтӗн@@ 3423
эпӗ, 3419
сӑн@@ 3419
во@@ 3418
тӑп@@ 3417
ҫем@@ 3407
витӗр 3397
ă 3396
кӑшкӑр@@ 3392
пах 3392
илчӗ, 3387
палла@@ 3387
енне 3368
кӑштах 3361
тӑр, 3361
бу@@ 3351
он 3346
темӗн 3346
й. 3339
ая@@ 3336
ҫа 3335
Республикин 3331
п-@@ 3329
хӑйсем 3319
Тур@@ 3317
каш@@ 3301
Кӗ@@ 3301
пынӑ 3297
вырта@@ 3292
сӗн@@ 3284
янӑ 3283
пек@@ 3283
ус@@ 3283
паллӑ 3283
пин 3282
пӑр. 3269
мӗш 3269
кӗн@@ 3264
1@@ 3263
рӗҫ 3262
Ман 3258
Ви@@ 3258
мер@@ 3250
ӑн@@ 3247
сла@@ 3247
чӗл@@ 3246
ет. 3244
ум@@ 3243
чир@@ 3241
ҫывӑх@@ 3238
нине, 3222
ту 3209
тӗрӗс 3209
çулхи 3204
ҫӗрте 3202
шӑл@@ 3202
лă@@ 3199
тарнӑ 3194
пӗри 3193
ский 3191
ата@@ 3191
ре, 3190
сси@@ 3188
шыв@@ 3187
?» 3185
Ҫы@@ 3182
ап@@ 3181
лав@@ 3181
Иван 3179
алӑк 3177
туй@@ 3172
.0@@ 3169
тив@@ 3164
тать. 3163
нӑҫ@@ 3163
вӗт@@ 3161
o@@ 3160
çĕ@@ 3159
d@@ 3159
сы@@ 3158
кӑвак 3156
ӗсем 3151
часах 3149
Мӗн@@ 3148
вара@@ 3145
Вӑ@@ 3145
мах 3143
пачах 3141
ӑш@@ 3139
пулнӑ@@ 3137
Сергей 3136
тухрӗ. 3136
яра@@ 3134
та. 3133
масть@@ 3130
чух@@ 3130
пă@@ 3127
ăн@@ 3126
тӑхӑн@@ 3123
Унта 3122
те. 3121
ге@@ 3119
Ли@@ 3119
ӑна, 3118
ксене 3115
кӑр 3115
лана@@ 3114
ҫутӑ 3110
ертсе 3105
персе 3101
рин@@ 3100
санӑн 3095
каланӑ: 3088
кӑш@@ 3083
мӗнпур 3083
хӑн 3080
пи 3080
илем@@ 3077
ҫывӑ@@ 3075
васка@@ 3075
леш@@ 3073
Турӑ 3073
йыш@@ 3071
сӑм@@ 3064
вы@@ 3063
умӗн@@ 3062
пĕ@@ 3061
Мар@@ 3050
Раççей 3048
Чӑваш 3040
Бо@@ 3037
вер@@ 3037
тӑрат@@ 3035
ят@@ 3033
Те@@ 3032
пултар@@ 3032
пилӗк 3030
е. 3029
в. 3026
пырать. 3025
яр@@ 3024
ӗнче, 3022
шӑр@@ 3022
Ин@@ 3021
ç 3018
пур. 3010
накан 3008
ть… 3007
ду@@ 3005
тӗрӗ@@ 2997
тӑрӑ@@ 2995
куҫне 2994
куҫӗсем 2992
сем! 2992
хула 2990
юлашки 2987
пичӗ 2987
леме 2986
ӗҫле@@ 2985
вырӑн 2982
ыйта@@ 2981
Ра@@ 2981
утса 2980
итле@@ 2974
малла, 2974
сь@@ 2972
месӗр 2971
ҫаплах 2967
ксен 2966
пулас 2961
савӑн@@ 2958
12@@ 2957
халӑх@@ 2957
ĕр@@ 2957
тӳр@@ 2953
20@@ 2952
ҫӗклен@@ 2951
ĕсем 2949
шыва 2949
ски 2948
ял 2946
таса 2943
ҫых@@ 2942
к. 2938
хавас@@ 2936
мана@@ 2926
юлташ@@ 2922
вӗҫсе 2921
з 2920
-ха? 2910
чĕ 2909
Су@@ 2907
Га@@ 2904
аван 2901
ак@@ 2899
хӑш@@ 2899
лаша@@ 2899
лине 2897
че 2891
тен, 2890
ывӑлӗ@@ 2888
ӗпе 2887
пыракан 2886
кер@@ 2885
тытӑ@@ 2883
ыр@@ 2882
пула 2880
парӑ@@ 2879
хушши 2876
Хӑй 2875
текен 2872
ллӗ 2870
кипе 2869
Вы@@ 2868
201@@ 2866
арӑ@@ 2865
йывӑҫ 2864
вич 2861
апат 2859
сехет 2855
хар@@ 2854
l@@ 2853
ук@@ 2840
сыв@@ 2839
тавра@@ 2838
кӗсем 2831
вит@@ 2830
шӗн@@ 2824
ҫавӑнтах 2824
лю@@ 2824
кӑва@@ 2823
ӑна@@ 2822
сасси 2821
ççĕ. 2820
кайрӗ, 2819
ху 2816
кӗн 2816
ги@@ 2815
тӗп, 2814
туйӑн@@ 2814
эп 2813
масӑр, 2812
мӑр 2811
о 2809
пирӗн@@ 2806
ени@@ 2806
пулӑ@@ 2804
чӗсем 2804
кансем 2799
199@@ 2799
ля@@ 2798
вӗр@@ 2798
То@@ 2796
пулӑш@@ 2790
лăх@@ 2789
ҫавӑ@@ 2786
пата 2786
s@@ 2784
-ха@@ 2784
чарӑнса 2775
тӑмӑр. 2775
ко 2774
Кар@@ 2773
питех 2773
вара? 2769
Шӑ@@ 2769
к-@@ 2768
ҫурӑ@@ 2768
се. 2767
лĕ@@ 2766
кӑ 2765
пре@@ 2764
аслӑ 2762
ӗнсе 2758
пере@@ 2756
чул 2755
лер@@ 2755
кисем 2754
нин@@ 2753
юнашар 2751
г 2751
ене@@ 2746
Алексей 2746
чен, 2744
Кӑ@@ 2740
чы@@ 2739
ларчӗ. 2738
вун@@ 2736
пур, 2734
хӗрарӑм 2734
ӑс@@ 2733
хуҫ@@ 2732
такан 2729
чĕ@@ 2728
каза@@ 2723
хса 2721
хуп@@ 2720
рӑна@@ 2716
мĕ@@ 2713
ҫутӑ@@ 2713
аса@@ 2709
чӑр@@ 2706
тель@@ 2701
фи@@ 2700
çул@@ 2700
лах 2699
18@@ 2698
хамӑн 2697
ҫухал@@ 2696
хатӗрлен@@ 2696
йӗпе 2696
ҫак@@ 2695
юр 2694
ӗл@@ 2694
хунӑ 2694
аллипе 2693
семшӗн 2692
пӑхрӗ. 2690
Кам 2689
скер 2686
сасӑ@@ 2685
мпа 2684
ҫинелле 2677
н. 2671
тӑн, 2670
мен. 2670
рӑнса 2666
тисем 2665
мерӗ. 2661
илсе, 2660
км 2660
Ро@@ 2657
Сӑ@@ 2657
нихҫан 2656
пӑхма 2651
ле, 2648
хула@@ 2647
ларакан 2642
вӑрман@@ 2641
нӑҫ 2641
мӑн@@ 2640
пӗлӗ@@ 2640
рисем 2638
нă@@ 2636
Тӗ@@ 2630
лӗк@@ 2627
ҫинчен, 2624
рӗҫ@@ 2623
марӗ, 2621
теле@@ 2619
таса@@ 2618
савӑ@@ 2615
ват@@ 2614
нин 2611
(19@@ 2609
пуҫласа 2608
бе@@ 2606
пĕр@@ 2606
лле 2605
тӗр 2601
кӑл@@ 2601
Николай 2599
шы@@ 2598
чех 2598
сулахай 2598
рӑмӑр. 2597
хӑна@@ 2594
ҫар 2589
хай@@ 2586
эсӗ, 2585
я. 2576
амӑшӗ 2576
каларӗ: 2575
Го@@ 2575
ек@@ 2571
йӑл@@ 2568
ран, 2566
-мӗш 2564
мест. 2564
пӗрремӗш 2561
за 2560
мат@@ 2559
ҫитнӗ 2559
17@@ 2559
хушса 2556
Тата 2555
тавра 2553
тӗлӗнмелле 2553
чĕл@@ 2552
мӗш@@ 2551
вула@@ 2548
пычӗ. 2547
вырӑна 2546
хӗвел 2546
зи@@ 2546
Ти@@ 2543
темӗнле 2542
нинчен 2538
вна 2538
рав@@ 2535
ем@@ 2533
тупа@@ 2532
ван 2532
ватӑ 2531
кӑмӑллӑ 2530
Вӗ@@ 2529
при@@ 2528
тытӑнчӗ. 2528
-ҫке@@ 2527
салта@@ 2527
Ӑ@@ 2526
калаҫса 2523
халех 2519
ссине 2519
вăрринчен 2516
Ан 2516
леш 2515
кӑтар@@ 2511
тла@@ 2510
лӑхне 2510
или@@ 2508
хир@@ 2506
ҫӳрен@@ 2501
усӑ 2501
тупӑ@@ 2500
r@@ 2498
ть; 2498
хыттӑн 2498
кана@@ 2497
Тен, 2496
ба 2496
каласан, 2494
сасси@@ 2488
л, 2487
ҫирӗп 2485
ҫитсе 2482
из@@ 2482
от@@ 2481
нар@@ 2479
нь@@ 2479
хӑраса 2477
З@@ 2476
кӑшкӑра@@ 2476
тӗм 2474
ҫил 2471
вӑрӑм 2470
шухӑша 2470
мал@@ 2469
кунне 2469
тнӑ 2468
ерех 2467
кайнӑ, 2459
уш@@ 2458
нĕ. 2455
хла@@ 2452
сто@@ 2450
ӗҫӗ@@ 2450
чече@@ 2449
Апла 2445
пачӗ. 2444
тав@@ 2441
ӗҫ. 2438
пулать 2436
территоринчи 2436
татса 2432
аллисене 2431
хыҫ@@ 2431
хӑл@@ 2430
юханшывăн 2426
курма 2426
кӑпа 2425
лӗхе 2424
лӑхӗ 2423
стан@@ 2421
кра@@ 2420
масть 2417
нӑй 2417
айне 2417
кула@@ 2416
Ж@@ 2416
ртса 2415
гу@@ 2414
татӑ@@ 2412
тинӗс 2411
кӗрт@@ 2409
рти 2407
палӑ@@ 2403
тӑр. 2398
?.. 2398
иккен. 2397
Мал@@ 2395
рă@@ 2393
кайран 2389
тӑват@@ 2385
00@@ 2384
айӗнче 2379
юла@@ 2379
Ҫавӑнпа 2378
Пурте 2375
пра@@ 2372
мра 2372
Чу@@ 2371
чӗн 2370
кайрӗҫ. 2370
кирек 2369
хан@@ 2366
кӗл@@ 2366
Вӑр@@ 2365
ларать. 2365
пӑра@@ 2365
ҫӗртен 2360
e 2359
чӑнах 2356
Мо@@ 2355
хӗр 2354
вӑхӑ@@ 2354
татах 2353
тӑраҫҫӗ. 2353
ка. 2350
ниц@@ 2348
кпа 2346
сене@@ 2345
суй@@ 2343
хӑн@@ 2342
ё@@ 2341
-ши? 2341
тӑчӗ, 2337
Кил@@ 2334
лле@@ 2333
198@@ 2333
га 2332
сӑна@@ 2332
пал@@ 2331
мӑш@@ 2329
вӑхӑт@@ 2328
вӑл@@ 2327
на. 2327
им@@ 2322
хӑваласа 2322
лап@@ 2320
Му@@ 2319
фа@@ 2318
хе@@ 2316
n@@ 2315
тухма 2314
лӑп@@ 2312
чӗ; 2309
ирӗк@@ 2309
талла 2304
Паттăрĕ 2304
11@@ 2301
кран 2300
хӑрушӑ 2300
шла@@ 2300
шӑнса 2300
Григорий 2298
хуй@@ 2296
паян 2296
ет 2293
каласа, 2292
c@@ 2292
ларса 2288
пурнӑҫ 2286
мӗ 2286
́@@ 2284
ҫавӑрса 2281
лӑхӗ@@ 2280
илнӗ. 2280
кӗте@@ 2278
ыл@@ 2276
ф 2274
сӳ@@ 2274
уй@@ 2271
алӑ 2271
[@@ 2265
вӑй 2263
хуска@@ 2263
куҫӗсене 2262
турӑ@@ 2262
лаша 2261
Чăваш 2261
хирӗҫ@@ 2261
ес 2260
хуллен 2260
Се@@ 2259
машин@@ 2258
юханшыв. 2258
ска@@ 2251
гра@@ 2251
тӑрать, 2250
чӗтре@@ 2250
чӳре@@ 2249
кара@@ 2248
йӗн 2247
киле 2243
усал 2243
курӑ@@ 2242
йӑлтах 2237
мă@@ 2235
курӑнса 2235
тивӗҫ@@ 2233
пуç@@ 2233
пурӑнма 2232
ӑшне 2232
кӗлет@@ 2229
çарĕн 2229
хуша@@ 2228
кӗне@@ 2222
çу@@ 2221
мел@@ 2221
вне 2220
тӑватӑ 2219
ҫыран 2218
ӑпа 2216
нер 2210
тӗп. 2209
2. 2197
кӗпе 2197
лисем 2195
с-@@ 2194
m@@ 2193
Тӗрӗ@@ 2189
пулӗ 2185
сӑн-@@ 2183
ак 2183
вар 2181
ют 2178
пӳлӗ@@ 2175
йывӑ@@ 2175
кка 2173
илтӗ@@ 2169
тне 2167
шыра@@ 2166
нать, 2166
ӗҫне 2166
хучӗ 2164
Ҫур@@ 2164
вĕ@@ 2163
ӗсене 2161
ц 2161
тус@@ 2158
тарчӗ. 2158
пынӑ. 2157
хӑш 2156
хӗрхен@@ 2156
– 2155
эпӗ@@ 2153
ĕнчи 2153
лӑк 2152
патша 2151
курӑна@@ 2149
вӑн@@ 2147
мелле@@ 2147
рах, 2146
197@@ 2145
ахаль 2143
пуҫӗ@@ 2141
курса 2141
ачи@@ 2139
тăр@@ 2137
чӗсене 2137
çă@@ 2137
кре@@ 2136
Халь 2134
ҫӳреме 2130
пӳрт@@ 2127
пил@@ 2127
хушӑ@@ 2126
ашшӗ 2126
ӑнланса 2126
би@@ 2125
кир@@ 2124
ҫула 2124
тӑван 2123
ӗнтӗ@@ 2121
Хӗ@@ 2118
Ц@@ 2117
Кала@@ 2115
кӳрен@@ 2114
тал@@ 2114
апла 2112
вӑрман 2111
хӑпар@@ 2110
куҫӗ 2110
таран 2107
каҫ 2107
p@@ 2104
трӗ 2103
Ле@@ 2099
шухӑш 2096
маст@@ 2095
малтанхи 2092
лӑрах 2092
нă, 2091
Бу@@ 2089
пуҫӗ 2087
кайрӗ 2087
чӗнмесӗр 2086
Сирӗн 2084
чӑн 2082
ыйтса 2081
-а@@ 2080
лӑплан@@ 2078
Со@@ 2075
нас 2075
ҫапӑҫ@@ 2075
нелле 2074
ирӗ@@ 2073
тисене 2072
Лу@@ 2071
ҫе 2071
Пур@@ 2069
кӑра 2067
вӑйлӑ 2065
ӑса@@ 2065
нипе, 2065
пулӗ. 2060
юлта@@ 2059
Ман@@ 2059
шӑпах 2058
Лю@@ 2058
сых@@ 2057
чӗҫ@@ 2056
чер@@ 2056
сил@@ 2054
Ме@@ 2054
сасӑ 2053
Ҫапах 2052
енче 2052
че. 2050
сана@@ 2049
асту@@ 2049
ец@@ 2048
инҫет@@ 2045
ӑна. 2045
халь@@ 2045
тура@@ 2042
ҫавна 2042
ӑсем 2040
çы@@ 2040
панӑ. 2038
ҫут@@ 2036
мастӑ@@ 2035
тӗлле@@ 2034
тор 2033
ҫулхи 2031
тӑчӗ 2031
g@@ 2029
тӑвӑ@@ 2027
иккӗ@@ 2027
сак@@ 2026
пулӗ, 2025
ӑҫ@@ 2023
мелле. 2023
Ҫӑ@@ 2021
нов@@ 2020
тӑвас 2019
сивӗ 2018
Сан@@ 2017
хӑвӑр 2016
юрата@@ 2016
мана, 2014
196@@ 2013
ҫех 2012
мен, 2011
ӗҫлеме 2010
пут@@ 2010
ҫулта 2009
укҫа 2007
Вӑл, 2006
вла@@ 2004
лам@@ 2004
ҫите@@ 2002
Пав@@ 2001
шӑп@@ 2000
рать. 2000
чылай 1997
ҫӳлелле 1996
нер@@ 1994
хушшине 1994
ҫӗн@@ 1993
яма 1993
сир@@ 1991
тарса, 1991
лин 1990
пулта@@ 1989
фо@@ 1986
хӑвӑ@@ 1985
ве 1984
ывӑн@@ 1982
иртнӗ 1980
тарӑ@@ 1980
Василий 1979
кӑшкӑрчӗ 1979
пыма 1976
çур@@ 1976
пуш@@ 1976
хӑвӑн 1975
вӑрттӑн 1974
ҫын, 1972
эс 1972
çи@@ 1972
ӗҫсем 1972
мӗр@@ 1971
Ҫи@@ 1970
тро@@ 1970
тип@@ 1969
Ҫавӑн 1968
Й@@ 1968
Не@@ 1967
Санӑн 1965
ччен@@ 1964
Ҫӳлхуҫа@@ 1963
т-@@ 1963
пӗр. 1962
мет@@ 1962
ирӗк 1961
пин@@ 1961
ҫыхӑн@@ 1961
аван@@ 1961
ене 1961
парса 1960
план@@ 1960
сасӑпа 1960
ваш@@ 1958
ҫуха@@ 1958
Хӗра@@ 1957
уншӑн 1955
лайӑ@@ 1954
ӳр@@ 1954
тӗслӗ 1953
шӑппӑн 1951
Андре@@ 1951
ҫӳҫ@@ 1949
каять. 1949
тре@@ 1949
чухнехи 1949
нумай@@ 1948
пӗлет@@ 1948
ҫу 1947
сшӑн@@ 1946
ерен 1946
чӳрече 1945
ҫапса 1942
Ӑҫта 1942
Андрей 1941
нӑшӑн 1939
пулчӗ, 1938
хыҫҫӑн, 1937
пурӑнакан 1937
«А@@ 1937
хама 1936
ье@@ 1935
тискер 1935
евич 1934
За@@ 1932
пуҫларӗҫ. 1932
тет, 1931
тан, 1931
ков@@ 1929
таҫта 1928
ҫине, 1925
Ҫакӑн 1924
ди 1923
пӑшӑлта@@ 1923
вăр@@ 1921
чӗпе 1920
Ен@@ 1920
Про@@ 1920
цил@@ 1920
ҫӑл@@ 1920
чӗ… 1918
çĕр@@ 1918
пулни 1918
шкул@@ 1917
тӑрӑша@@ 1916
юлнӑ 1916
тӗттӗм@@ 1916
пулӑт@@ 1916
перевçĕсен 1915
ет, 1914
кӗнӗ 1908
пысӑ@@ 1908
Ҫапла, 1908
вӑл? 1906
пле@@ 1905
Владимир 1904
мӗпе 1904
хускал@@ 1902
тура 1901
не. 1901
лени 1900
фрончĕн 1900
ҫурт 1899
ана@@ 1899
çыранĕпе 1899
иккенне 1898
рас 1898
хӗрарӑм@@ 1897
чӗркуҫ@@ 1893
…» 1893
нӑн, 1892
теҫҫӗ. 1891
тыта@@ 1891
() 1888
хӗррине 1887
пуринчен 1886
масӑрах 1883
каяс 1882
ри, 1881
лайӑх@@ 1881
тере@@ 1881
мерӗ@@ 1881
кӗс@@ 1881
касса 1881
аль@@ 1880
тӑн. 1879
евна 1878
сӑн 1877
вунӑ 1877
тер 1877
194@@ 1873
лартнӑ 1873
ҫӗн 1872
лӑн@@ 1872
ме, 1871
кра 1871
3. 1870
кӑсем 1869
Ав@@ 1869
всем 1867
сӑмахсене 1867
мастӑп. 1867
пӑшӑрхан@@ 1866
совет 1865
полкĕн 1865
пулман 1862
каҫа@@ 1860
кисене 1859
192@@ 1858
тарнӑ. 1858
лакан 1856
сай@@ 1855
вырӑнта 1855
палӑрт@@ 1853
эр@@ 1852
йывӑр@@ 1852
елле 1852
хӑр 1850
ответ@@ 1850
ҫӑра 1849
расси 1848
тир@@ 1847
тем@@ 1847
ҫирӗм 1846
фе@@ 1846
шка@@ 1846
нат@@ 1846
три@@ 1845
ҫывӑр@@ 1845
мӑкӑрта@@ 1844
ятлӑ 1844
лсе 1843
дивизин 1843
Ыт@@ 1843
сал@@ 1840
ракан 1840
рӗ; 1840
ӗр, 1840
Никола@@ 1838
шутласа 1838
лов 1838
сенчи 1837
хӑйсене 1837
Пет@@ 1835
1-мĕш 1834
тӑрӑх, 1834
унран 1831
тесен, 1830
йӑл 1829
хутшӑн@@ 1829
тӗлӗнсе 1829
кене 1828
-тӑ@@ 1827
кӳр@@ 1827
шухӑшларӗ 1826
поли@@ 1823
] 1823
ырат@@ 1822
кӑна@@ 1821
стар@@ 1821
ҫӗнтер@@ 1819
мӗсем 1818
туйӑнать. 1818
ком@@ 1817
хаҫа@@ 1817
Кун 1816
япала@@ 1815
ҫапӑ@@ 1815
час-часах 1814
Ир@@ 1813
клӑ 1811
хурал@@ 1811
келесе 1811
хӑтлан@@ 1811
Израиль 1809
пӗччен 1809
ҫурал@@ 1809
хулпуҫҫи@@ 1808
мах@@ 1806
кая 1805
маллине 1805
илемлӗ 1805
та! 1804
тӗттӗм 1803
брига@@ 1803
пулмалла. 1802
бан@@ 1801
тухнӑ. 1800
ски@@ 1799
фор@@ 1799
улӑ@@ 1796
тӗм. 1796
алла 1796
иль@@ 1795
сывлӑ@@ 1794
ҫынсен 1793
пине 1791
4. 1791
пӗтнӗ 1791
тӗре@@ 1788
вой 1787
Вӗсен 1786
анса 1784
Ат@@ 1784
стра@@ 1784
ис@@ 1783
пӑрӑн@@ 1782
вал@@ 1781
Мӗ@@ 1778
ры@@ 1778
улта@@ 1778
ч, 1778
с. 1777
тика 1777
зе@@ 1776
юх@@ 1776
ытлашши 1775
нӑн@@ 1775
Вӗсене 1774
каланине 1774
кунӗ@@ 1774
марӗ 1773
15@@ 1772
ст 1772
килет@@ 1772
мӗл@@ 1770
хыв@@ 1770
пуҫланӑ. 1770
янӑ. 1769
лӑ. 1769
офицер@@ 1764
пулман. 1764
таш@@ 1764
кӳл@@ 1763
тарас 1762
ил 1761
ывӑлӗ 1760
5. 1759
ланине 1759
екен@@ 1756
лайӑхрах 1755
хучӗ. 1755
ӗҫ, 1755
айӑ@@ 1754
ҫавӑр@@ 1754
пулчӗ 1754
ҫинчен@@ 1754
тине 1753
урӑхла 1752
ӗлкӗр@@ 1752
пӑн@@ 1751
ларта@@ 1751
тӳрӗ 1750
ҫун@@ 1750
сук@@ 1748
тӑхӑннӑ 1748
стер@@ 1748
чӗк 1747
хутчен 1747
Сана 1747
ӳке@@ 1746
вӗсенчен 1746
Хӑйӗн 1746
хыпа@@ 1746
кӗчӗ. 1745
чаплӑ 1745
сӑмахсем 1743
иккӗмӗш 1743
кас@@ 1739
хисеп@@ 1739
евӗр@@ 1738
нĕ 1737
ско@@ 1734
16@@ 1733
ҫсе 1733
килет. 1733
куҫӗ@@ 1733
колхоз@@ 1731
кӗтмен 1730
Петро@@ 1729
рин 1729
юн@@ 1729
кӗсене 1727
Пат@@ 1726
м! 1724
мастӑп, 1724
нӑскер, 1724
ках 1723
пулать@@ 1723
и, 1723
ларнӑ. 1723
ҫырнӑ 1723
япаласем 1721
Гри@@ 1721
патӗнчен 1720
h@@ 1720
ило@@ 1719
сывласа 1717
тытнӑ 1717
пӗлсе 1715
ҫҫӗ… 1715
шта@@ 1714
ста 1714
Да@@ 1711
курай@@ 1711
тĕр@@ 1710
сем: 1707
кал@@ 1706
палӑр@@ 1706
терӗм 1706
эсӗ@@ 1705
рех@@ 1702
тӑс@@ 1702
ино@@ 1700
ӑшӑ 1697
сӑмахне 1697
пыр@@ 1696
Кун@@ 1696
вут 1695
местӗ@@ 1695
пӗчӗк@@ 1695
тетӗн@@ 1695
чӑн-чӑн 1693
сехет@@ 1693
14@@ 1693
йӗсем 1692
ск 1691
ство 1689
илей@@ 1688
нимӗнле 1688
пĕр 1684
пӗр-пӗр 1682
мухта@@ 1681
пулӑша@@ 1680
уйӑх 1679
6. 1678
курӑнать. 1676
Ачасем 1676
ури@@ 1676
шарла@@ 1676
юханшы@@ 1674
тей@@ 1674
мӗр. 1673
р! 1672
тӗс@@ 1671
калӑ@@ 1670
летсе 1667
пӑхса, 1665
уҫӑ 1665
началь@@ 1665
выльӑ@@ 1665
ша, 1663
хӑҫан 1662
сахал 1662
эсӗ? 1659
Шу@@ 1658
Мускав@@ 1658
мсем 1656
рон@@ 1655
хӗвел@@ 1654
имен@@ 1654
выртакан 1653
чӗнсе 1652
аман@@ 1651
Ал@@ 1650
цин 1648
Володя 1648
Ҫӗр@@ 1645
граф@@ 1644
Ҫӗр 1644
шӗсем 1644
ли, 1643
пулас@@ 1643
курнӑ 1643
семпе, 1641
вӑрҫӑ 1640
сывла@@ 1640
расшӑн 1639
хыт@@ 1639
кайӑк 1639
реш@@ 1636
)@@ 1635
сас@@ 1633
ҫҫӗ; 1632
ҫӑн 1631
пса 1630
этем 1630
ӑшӑ@@ 1628
ть! 1626
вич@@ 1625
сту@@ 1625
вӑхӑтрах 1625
S@@ 1625
Александр 1624
ҫӗршыв@@ 1624
илес@@ 1622
ĕпе 1620
так@@ 1620
ҫинче, 1619
тытса, 1618
вӗт 1617
пӗлме 1616
ӑшӗнче 1615
s 1614
ҫӗмӗр@@ 1614
меннине 1614
хӑруш@@ 1611
вӗсем, 1611
пӑрахса 1611
хӑюл@@ 1611
Во@@ 1611
мест, 1609
тар 1608
пич@@ 1608
пухӑн@@ 1607
илнĕ 1605
рипе 1605
Алексе@@ 1605
7. 1604
плӑ 1604
кӑтартса 1603
нимӗҫ@@ 1603
кама 1603
лекен@@ 1602
пан@@ 1602
тӑк 1602
193@@ 1601
тӑшман 1600
тӑна 1600
лӗ. 1600
терӗ@@ 1600
вӗрент@@ 1598
ӳл@@ 1598
Ду@@ 1598
тӑл@@ 1598
ҫавӑн@@ 1593
ниепле 1593
ӑра 1593
Бе@@ 1593
пух@@ 1592
b@@ 1592
лени@@ 1591
лисене 1591
an@@ 1591
янӑ@@ 1590
Саша 1589
никӗ 1586
амӑ@@ 1585
вӗҫе@@ 1585
куҫа@@ 1583
Ча@@ 1583
тун@@ 1583
Хал@@ 1582
нать 1582
кач@@ 1581
йӑх@@ 1580
сӗ 1580
тӗрӗсле@@ 1580
фрон@@ 1579
курӑк 1578
19@@ 1578
мелле, 1578
шыраса 1577
ца 1577
сӑлта@@ 1576
хум@@ 1576
ҫар@@ 1576
) — 1575
13@@ 1574
ыткӑн@@ 1571
Эх, 1571
Эп 1570
Павел 1568
юрла@@ 1568
нӑччӗ. 1566
урӑх@@ 1566
ҫакӑн@@ 1566
хӑшӗ 1565
ҫсем 1564
пушӑ 1564
пӑшал@@ 1564
лӑпкӑ 1564
лалла 1563
сирӗн@@ 1562
тил@@ 1561
8. 1561
пӗр, 1559
сывлӑш 1559
пӳ@@ 1558
ҫ, 1556
195@@ 1556
вырӑ@@ 1555
сер@@ 1555
Иванович 1555
юн 1554
вăхăтра 1551
ҫапла@@ 1551
кайса, 1551
хӗре@@ 1550
ҫитрӗ. 1549
лартса 1547
нума@@ 1546
ҫӑмӑл 1546
шар 1546
арӑмӗ 1546
тӑнине 1545
евӗр 1545
хӗпӗр@@ 1545
кирлӗ@@ 1544
тарӑх@@ 1543
хе 1542
пит-@@ 1542
пултӑр 1540
ҫакӑ 1539
ыт@@ 1539
Ша@@ 1539
чӗк@@ 1538
авто@@ 1538
ҫамрӑ@@ 1538
умӗн 1538
тран@@ 1538
:@@ 1537
манпа 1536
пулас. 1535
сарлака 1535
er@@ 1535
ки, 1534
хӳтӗ@@ 1533
пултарать. 1533
ден@@ 1532
ян 1532
кӗме 1532
ҫур 1532
вилнӗ 1530
ров 1530
1. 1530
улӑш@@ 1530
тут@@ 1529
иккӗлен@@ 1529
сахал@@ 1529
ури 1529
A@@ 1529
тарха@@ 1529
кан, 1528
Сасартӑк 1524
пӗлместӗ@@ 1523
це@@ 1522
вӗсемпе 1522
командирĕ, 1521
май, 1519
темскер 1519
хӗра@@ 1519
ҫити@@ 1518
паллах, 1518
питне 1518
рӗ… 1517
никама 1515
йӗсене 1514
патша@@ 1514
тӑп: 1514
ҫан@@ 1513
Ура@@ 1513
самантра 1513
авиаци 1513
 @@ 1511
чӗрӗ 1511
хĕ@@ 1510
пӑхрӗ 1510
шӑн, 1509
Ну@@ 1509
ҫӳрекен 1509
ӗмӗ@@ 1506
хӑвӑрт@@ 1505
пӳлӗме 1504
хаклӑ 1504
пултӑр@@ 1504
туйса 1504
хра@@ 1503
-им? 1503
чӑмӑрта@@ 1501
9. 1498
чысне 1498
санах 1498
зо@@ 1497
шш@@ 1495
вич, 1495
каят@@ 1494
кӑла@@ 1494
т! 1493
ӳс@@ 1493
ăна 1492
мӑй@@ 1492
макӑ@@ 1492
уҫса 1491
Ре@@ 1491
кунтан 1490
тахҫанах 1488
паллаш@@ 1487
турӑ 1487
самантрах 1485
арҫын 1485
мест 1485
ҫҫӗ: 1485
лет 1484
вӗҫӗ@@ 1484
Кор@@ 1484
маншӑн 1483
ыта@@ 1483
тарчӗ 1483
вуласа 1481
маш@@ 1481
чӑ 1481
тӑн? 1480
чухне, 1480
уйӑх@@ 1479
-ха! 1479
кӑмӑллӑн 1478
Че@@ 1478
ҫан 1475
ҫӗклесе 1475
Кир@@ 1475
йĕр@@ 1475
Нимӗ@@ 1475
ӳкнӗ 1474
мерӗ, 1474
сана, 1474
йӑн 1472
хулпуҫ@@ 1471
вĕрен@@ 1471
нӑ… 1471
тимӗр 1471
ачасене 1471
хӑвӑртрах 1470
лех 1470
ва, 1469
лесе, 1469
тру@@ 1469
ланма 1469
çар@@ 1469
об@@ 1469
сех@@ 1469
-мӗн@@ 1465
Паллах, 1464
шер 1463
тинкерсе 1462
ашш@@ 1462
асӑн@@ 1460
майлӑ 1459
маҫҫӗ. 1458
чак@@ 1458
мастӑп@@ 1457
ган@@ 1457
ячӗ, 1457
кӑнтӑр@@ 1456
сем? 1455
йӗри-тавра 1455
ань@@ 1455
дин 1454
тӑнӑ, 1454
пӑшал 1454
сарӑ 1454
клас@@ 1453
Ио@@ 1453
шӑм@@ 1453
итлесе 1450
наҫҫӗ. 1450
пек. 1448
тӑран@@ 1447
евӗрлӗ 1446
хах 1445
иккен@@ 1445
Ву@@ 1444
си 1444
симӗс 1443
Ача@@ 1442
нимӗҫ 1442
аптра@@ 1442
манран 1441
ей 1440
Фран@@ 1440
чка 1440
пуррине 1439
уҫӑ@@ 1439
Де@@ 1439
ссе 1438
-та@@ 1438
Епле 1438
чĕн 1438
аяккалла 1438
пол@@ 1437
карса 1437
пах@@ 1436
чул@@ 1436
ла. 1436
ҫисем 1432
ҫыннисем 1432
уйрă@@ 1432
Ҫакна 1431
йывӑҫ@@ 1430
жа@@ 1430
маннине 1430
леннӗ 1429
ья 1429
пӗрлеш@@ 1429
выртать. 1428
Хо@@ 1428
хыҫӗнче 1428
Паттăрĕн 1427
шакка@@ 1426
илет. 1425
инке@@ 1424
курсан, 1424
пӳрт 1421
-ҫке 1421
мастӑп 1421
вах 1420
ҫса 1420
лерӗ 1419
ниҫта 1419
ҫура@@ 1418
йытӑ 1418
йӑтса 1417
тарать. 1417
каланса 1416
уйӑрса 1416
пуль 1416
кӑна, 1416
та… 1415
вырнаçнă 1413
пачӗ 1413
ăх@@ 1412
асаплан@@ 1412
стена 1412
сӑнаса 1412
яв@@ 1411
До@@ 1411
100@@ 1411
вӗре@@ 1411
илет@@ 1410
сӑх@@ 1410
мӗнле@@ 1410
ханса 1410
аллисемпе 1409
ӑнлана@@ 1409
илтӗнсе 1409
Серге@@ 1408
йӳ@@ 1408
машина 1408
Кур@@ 1407
пӗр-пӗрне 1407
чӗтрен@@ 1407
хуҫи 1407
вырӑнтан 1407
халӑ@@ 1406
шур@@ 1406
гал@@ 1406
тӑчӗҫ. 1405
республи@@ 1405
аран-аран 1405
ҫ. 1404
тӗрӗс@@ 1404
ин, 1404
месӗр, 1403
малтанах 1402
ҫара 1402
йĕ 1401
ствӑ@@ 1401
тес@@ 1399
парать. 1399
ҫӑва 1399
тусем 1399
пытар@@ 1398
ина@@ 1398
ҫӳрер@@ 1397
машкӑн 1397
пӑхӑн@@ 1396
Чӑ@@ 1395
тав 1394
яла@@ 1394
шанса 1393
шӑп 1393
тытма 1392
ашшӗ@@ 1391
лӑхпа 1391
ҫӑмӑл@@ 1390
ларма 1390
не-@@ 1390
Ваҫ@@ 1390
айӗнчен 1389
ятне 1389
ăç@@ 1389
Ге@@ 1389
кăн@@ 1388
стро@@ 1388
Кон@@ 1387
кам@@ 1387
шуса 1387
ктор@@ 1386
сле@@ 1386
Ста@@ 1385
тех 1385
ҫисе 1385
пуҫлан@@ 1385
пулма@@ 1383
Пӗтӗм 1383
ахӑ@@ 1382
уйрӑм 1382
сис@@ 1382
Юра@@ 1381
пӗрне 1380
ҫирӗп@@ 1380
B@@ 1379
хинчен 1379
ӗк 1378
пер 1378
енӗпе 1377
ҫыру 1376
таракан 1376
çç@@ 1376
Тем@@ 1375
б 1375
ҫав, 1375
сапа@@ 1374
хӗрринче 1371
хушшин@@ 1371
кӗтес@@ 1370
C@@ 1370
юрӑх@@ 1370
;@@ 1369
илчӗҫ. 1369
ж 1368
мы@@ 1368
тель 1367
уйӑ@@ 1366
ксемпе 1366
ҫивӗ@@ 1365
килте 1365
яхӑн 1364
мастӑн@@ 1364
теме 1364
ҫӳллӗ 1363
хап@@ 1363
Чи 1363
ҫумӑр 1363
лӑпкӑн 1363
мран 1362
ҫыран@@ 1362
I@@ 1362
ҫырма 1361
Анто@@ 1361
тарӑн 1361
v@@ 1360
ачаш@@ 1360
мин 1359
лать. 1358
Хӗр@@ 1358
енчи 1355
çĕр 1355
амӑш@@ 1355
Волод@@ 1354
йӑлтӑрта@@ 1353
рӑх 1353
киле@@ 1352
виҫ@@ 1351
туйӑнчӗ. 1351
Ру@@ 1351
трӗ. 1351
Сы@@ 1350
тать 1350
ся 1349
Чӑнах 1348
пурӑннӑ 1348
тас 1348
нумайччен 1347
хир 1347
чупа@@ 1344
там 1344
сӳн@@ 1343
нимӗҫсем 1342
пӑраха@@ 1342
сне 1342
ь, 1341
тӗлӗ@@ 1341
хулана 1341
тӑн-и? 1341
ӗҫӗ 1340
рех, 1339
тес 1339
Икӗ 1339
ыра@@ 1339
Вă@@ 1339
тел@@ 1339
щ@@ 1338
ҫӗсем 1336
кат@@ 1336
тата, 1336
кил 1335
чун 1335
Хӑй@@ 1334
пулса, 1334
тирпей@@ 1334
Хы@@ 1333
ҫывӑрса 1333
Мускав 1332
еш@@ 1332
иккӗшӗ 1331
хурса 1331
вӑран@@ 1331
мач@@ 1331
ра. 1331
хӗрарӑ@@ 1330
куна 1330
тепри 1330
ушкӑн@@ 1328
Сал@@ 1328
тӑш@@ 1328
мех 1327
пӳл@@ 1327
илчӗ: 1326
енсе 1326
старик 1325
вӑрт@@ 1324
атте 1324
упӑ@@ 1323
килчӗ. 1323
сӑмахӗ@@ 1322
Пӳ@@ 1320
вӗл@@ 1320
уса@@ 1319
терме 1319
тӑшман@@ 1318
сӑма@@ 1318
минут@@ 1318
капитан 1317
хунӑ. 1316
тпа 1316
сухал@@ 1315
тать, 1315
чан@@ 1315
бин@@ 1314
ҫырӑ@@ 1314
ҫыра@@ 1314
лас 1314
Бер@@ 1313
ӑнӑҫ@@ 1312
япа@@ 1311
пулсан@@ 1311
ятла@@ 1311
ҫуна@@ 1310
хуҫа@@ 1310
таврӑна@@ 1309
ӳре@@ 1309
стать@@ 1308
Кан@@ 1307
хала@@ 1307
асла@@ 1307
филь@@ 1306
вӗпе 1305
нович 1305
ҫеҫ, 1303
пуль@@ 1303
ăх 1302
куҫҫу@@ 1302
лӗрех 1301
яланхи 1301
ҫӗнӗрен 1300
ӑҫтан 1300
вӗт. 1300
илнӗ, 1298
тулли 1296
чӗри 1296
укҫа@@ 1296
Пал@@ 1296
манса 1295
пӗшкӗн@@ 1295
Кашни 1295
-пӗр 1294
пӗлӗт 1294
ĕс@@ 1294
…@@ 1294
хаяр 1293
ях 1293
тӑп! 1293
па. 1292
Ди@@ 1291
ух@@ 1291
ҫакӑнса 1291
стари@@ 1291
Кӑш@@ 1290
А. 1289
пурăнан 1289
та? 1288
улшӑн@@ 1287
Кай@@ 1286
шав@@ 1286
калас 1285
нашкал 1285
Паян 1284
кансене 1284
Дж@@ 1283
калан@@ 1283
тавҫӑрса 1283
лӗсем 1283
хӑйпе 1282
уйрӑ@@ 1282
шшӗ 1282
ӗлкӗрей@@ 1282
Лен@@ 1282
эсир, 1280
пӑл@@ 1280
карап 1279
Е 1279
"@@ 1279
йышӑ@@ 1279
сӑрт 1278
ҫирӗ@@ 1278
вăл 1278
уя@@ 1278
ла-@@ 1277
»@@ 1276
зин@@ 1276
екен 1276
м-@@ 1276
терекен 1275
нет@@ 1275
тунӑ. 1275
рес@@ 1275
лерӗ. 1275
шӗн, 1275
ççĕ@@ 1274
шӑлса 1274
ҫавра@@ 1274
жен@@ 1274
тӑрӑх@@ 1273
тлӑ 1272
Ольга 1271
ылтӑн 1271
ӗн. 1270
тӗлне 1270
куҫӗсемпе 1270
сӗтӗр@@ 1270
тах@@ 1269
чине 1269
рисене 1269
Ит@@ 1268
хулин@@ 1268
-мĕшĕнче 1268
хӗрелсе 1268
вен@@ 1267
телей@@ 1267
-ҫке, 1267
татӑк@@ 1266
ялта 1266
мӗск@@ 1265
парне 1265
мар! 1265
карчӑ@@ 1265
шӑрш@@ 1265
урисене 1265
кайнине 1264
лӗпе 1264
пӑхнӑ 1264
ктор 1263
Фо@@ 1263
сылтăм 1261
илӗр@@ 1261
виҫҫӗ@@ 1260
тухать. 1260
сӑррӑн 1259
пуҫларӗ 1259
Йӑ@@ 1258
пырать, 1258
чал@@ 1258
тӑрса, 1258
ытла@@ 1257
шă@@ 1257
тавӑ@@ 1256
рӑх@@ 1255
сей@@ 1255
син@@ 1254
йӑмӑ@@ 1254
ҫумӗн@@ 1254
тӗксӗм 1254
уйăх@@ 1254
кӑлара@@ 1254
шӑтӑ@@ 1253
виҫҫӗмӗш 1252
хушшинчи 1252
ня@@ 1251
ленӗ. 1251
тӗлӗшпе 1251
хыҫҫӑ@@ 1250
тӗнче 1249
Кал@@ 1249
ыттисем 1248
х! 1248
чик 1248
шут 1246
тухӑ@@ 1246
хресчен@@ 1246
жа 1245
хӑнӑх@@ 1244
сенче, 1243
минут 1243
шӑрши 1242
Тӳ@@ 1242
шиклен@@ 1241
суйласа 1240
рабочи@@ 1239
пуҫларӗ, 1239
тӗм, 1239
председа@@ 1239
во 1238
сем» 1238
кӗске 1237
чарса 1237
рал@@ 1236
en@@ 1236
шӑтӑк@@ 1236
тарах 1235
кка@@ 1235
айӑп@@ 1235
вин@@ 1235
ини@@ 1234
мине 1234
Гу@@ 1234
хушӑра 1233
истори@@ 1232
лешӗ 1232
вӗри 1231
пӑхрӗ, 1231
револю@@ 1231
лтатса 1230
ссипе 1230
пурин 1230
карти@@ 1229
Хам 1229
пурнӑҫа 1229
нул@@ 1227
вӑхӑтӗнче 1227
Каҫ@@ 1227
in@@ 1226
ҫывӑх 1226
ҫӑсем 1225
пӑрта@@ 1225
хӑпарса 1225
ĕсен 1224
сассине 1224
ишсе 1224
партизан@@ 1224
тӗт@@ 1224
пĕрремĕш 1223
лĕх@@ 1223
тӑра 1223
сна@@ 1223
й-@@ 1223
тӑсем 1223
йывӑррӑн 1222
кук@@ 1222
Ӑн@@ 1222
тӗ 1222
аллинчен 1220
ине, 1220
куҫа 1220
Кры@@ 1220
ҫитсен, 1220
лахи 1218
пӗҫер@@ 1218
сассӑн, 1217
ответ 1217
ҫитрӗ@@ 1217
пӑлха@@ 1217
ҫӗрле 1217
Пе@@ 1216
ҫапӑҫу@@ 1216
сине 1215
сӑмаха 1215
лав 1214
ӗҫлекен 1214
тепри@@ 1214
Хӑш@@ 1214
Кая@@ 1214
хупла@@ 1213
кана 1212
метр 1212
пикен@@ 1211
улпу@@ 1211
кивӗ 1211
майпа 1211
тӑртат@@ 1211
çи 1210
илес 1210
T@@ 1209
ҫӑкӑр 1209
сала@@ 1208
ҫынни@@ 1208
аппа@@ 1207
Ҫынсем 1207
пулӗччӗ. 1206
хыҫӗнчен 1206
сарса 1206
пеке@@ 1206
лерӗ@@ 1204
лейтенан@@ 1204
вӗлере@@ 1204
утрӗ. 1204
вра@@ 1203
кор@@ 1203
вилӗ@@ 1203
ӑнлантарса 1202
Петр 1202
ринчен 1202
Сире 1202
чалӑш@@ 1201
чух, 1201
пӗр-пӗрин 1201
ть? 1201
начар 1201
пултару@@ 1201
ппи@@ 1200
M@@ 1200
лăх 1199
лан 1199
тӗлӗнтер@@ 1198
три 1197
a 1197
шки 1196
вӗҫне 1196
Сан 1195
Но@@ 1194
мӗр 1194
ҫитӗн@@ 1193
кро@@ 1193
кимӗ 1193
эрех 1193
тумти@@ 1193
пӑхать. 1193
аш@@ 1192
скерсем, 1192
тытӑнса 1192
таҫҫӗ. 1191
пӳлӗм@@ 1190
вӗт, 1189
хӑ 1188
каларӗ. 1187
Рай@@ 1187
вӗсен@@ 1187
тӗр, 1186
кӗнеке@@ 1185
ня 1185
вырăн@@ 1184
терӗм. 1183
аран 1183
пӗр-пӗринпе 1183
ви 1183
цо@@ 1183
Пире 1182
вăн 1182
хӑрса 1181
Эпӗ, 1181
иш@@ 1181
рӗсем 1181
юханшыв 1180
тытрӗ. 1180
тухрӗ 1180
шӗпе 1179
обла@@ 1179
пурпӗрех 1179
нӑй@@ 1179
Ах, 1179
тӑванӑ@@ 1178
тетӗп. 1178
ӳсе@@ 1178
тапра@@ 1178
танлаш@@ 1178
сылтӑм 1178
рей@@ 1177
30@@ 1176
мӗне 1176
тӑмӑр, 1175
сран 1175
ҫулта@@ 1174
ӑран 1174
Коро@@ 1174
пичет@@ 1174
баталь@@ 1174
калать: 1173
хальхи 1173
пыраҫҫӗ. 1172
Акӑ, 1172
ен 1172
участо@@ 1172
Пушкăрт 1171
Ива@@ 1171
кӑмӑла 1170
чей 1170
танк 1170
пытан@@ 1169
чиксе 1169
ши 1169
территори@@ 1169
çын 1169
кӗрӗ@@ 1169
никсем 1168
тепре 1168
тытӑнчӗҫ. 1168
кри 1168
ецсем 1167
кӑмӑл 1167
такам 1165
мак 1164
ров@@ 1163
жи@@ 1163
под@@ 1162
пусса 1162
ларчӗ, 1162
чӳ@@ 1162
хурлӑх@@ 1162
усӑ@@ 1161
комму@@ 1161
мала@@ 1160
кӗреш@@ 1160
вс@@ 1159
ҫам@@ 1158
кӗсй@@ 1158
тапран@@ 1158
цине 1158
келен@@ 1158
хыпар@@ 1157
ăç 1157
ассӑн 1157
ница 1156
Ҫын@@ 1155
хисе@@ 1154
сӑрт@@ 1154
Чер@@ 1154
Иккӗ@@ 1154
кӗнеке 1154
куҫса 1154
А 1153
Ҫӗнӗ 1153
шо@@ 1152
татӑл@@ 1152
пурӑ@@ 1152
халӑха 1152
Оль@@ 1152
В. 1151
же@@ 1151
рӑмӑр, 1151
тех@@ 1151
апла@@ 1151
Пӗл@@ 1151
ген@@ 1150
лов@@ 1150
пӗтӗмӗш@@ 1149
пӗлмен 1149
хипе 1148
дь@@ 1148
намӑ@@ 1148
тупай@@ 1148
Республи@@ 1146
хӗҫ@@ 1146
аялалла 1146
бур@@ 1145
Ри@@ 1145
ят 1145
каякан 1144
Пуҫ@@ 1143
вел@@ 1142
Ҫавӑн@@ 1142
салтак 1141
вать 1141
ҫӳренӗ 1141
хыҫне 1140
иккен, 1140
интерес@@ 1139
кӑларнӑ 1139
фер@@ 1139
расса 1138
бар@@ 1138
ҫӑмар@@ 1138
ҫакса 1137
зада@@ 1136
тим@@ 1134
куль@@ 1134
2-мĕш 1134
кӑмӑ@@ 1133
те: 1133
n 1133
айӗнчи 1132
пӗлмест@@ 1131
мӗ, 1130
Катя 1130
йӗр 1130
нӳ@@ 1129
манни 1129
ҫеҫ@@ 1129
кӑмӑлне 1129
районĕнчи 1128
улӑх@@ 1127
ранпа 1127
ҫиллен@@ 1125
ств@@ 1125
л. 1124
хытӑрах 1124
алӑка 1124
ран. 1123
сире@@ 1123
Ак 1123
чере@@ 1122
ăш@@ 1121
гор@@ 1121
нӑччӗ, 1121
пулас, 1121
ҫыннӑн 1121
лӗк 1120
рӑр, 1120
пар 1120
Питӗ 1120
тӗпче@@ 1120
хӑя@@ 1118
пулӑ 1117
Степа@@ 1117
хваттер@@ 1117
Хӗрлӗ 1116
рах. 1116
курчӗ. 1116
йӗрӗн@@ 1115
ӗпех 1115
ма. 1114
шанчӑ@@ 1114
ҫичӗ 1114
мӑнаҫ@@ 1113
калаҫнӑ 1112
3-мĕш 1112
куҫран 1111
мана. 1111
ен, 1110
зан@@ 1110
чисем 1109
алли 1109
районĕнче 1109
Малтан 1109
вырӑс 1109
Герма@@ 1109
ларать, 1108
ирхине 1108
Федера@@ 1108
кӳрентер@@ 1108
тя@@ 1107
ҫыхса 1107
нӗсем 1106
эсир? 1105
унта, 1105
Турӑ@@ 1105
тухрӗ, 1105
Тан@@ 1104
хӗррин@@ 1103
илсен, 1103
тр@@ 1103
пӑхса. 1103
пӳрте 1101
чери 1101
кай 1100
Кура@@ 1100
уйрӑм@@ 1099
сав@@ 1098
харӑ@@ 1098
тăн 1097
ваш 1097
витӗн@@ 1095
ҫук! 1095
упра@@ 1095
сем… 1095
ро 1095
ыйтрӗ. 1094
юратнӑ 1094
ҫынни 1094
-мӗш@@ 1091
ӗҫре 1091
тупа 1091
ӳсӗр@@ 1091
эн@@ 1090
тунине 1090
сив@@ 1090
ская 1089
пулӑшма 1089
хулӑн 1089
рӑн, 1089
туя@@ 1089
санпа 1088
-пӑ@@ 1088
хӗрарӑмсем 1088
хамӑ@@ 1088
качча 1088
Йӗ@@ 1088
ни. 1087
развед@@ 1087
каҫар@@ 1087
P@@ 1086
ӑслӑ 1085
Анна 1085
парас 1085
юлану@@ 1085
ултӑ 1084
вырă@@ 1084
яла 1083
сыхла@@ 1082
тчӗ. 1082
нӑччӗ 1082
Ай@@ 1081
шен@@ 1081
апат@@ 1081
ринче 1080
ссем 1080
Таня 1080
Сыв@@ 1079
инчи 1079
парӑн@@ 1079
хупласа 1078
илӗ@@ 1078
тултарнӑ 1077
Ком@@ 1077
Евро@@ 1076
хушшинчен 1076
тӗрлӗрен 1076
тата? 1075
Петрович 1075
гин 1075
ччӑ@@ 1075
чӗ! 1075
лян@@ 1074
кунта, 1074
ачана 1074
ёр@@ 1073
пӗҫ@@ 1073
хыпар 1073
тарнӑ, 1073
тăршшĕ 1073
ӳстер@@ 1072
йӗн@@ 1072
ӳп@@ 1072
нец@@ 1072
ҫути 1072
ячӗпе 1071
ҫҫӗ! 1071
липе 1071
интереслен@@ 1071
нӗпе 1071
ӗрен@@ 1070
тсене 1070
илтӗм. 1070
ҫывхар@@ 1069
сап@@ 1069
авалхи 1068
пӑртак 1068
пычӗ 1068
лай@@ 1068
паракан 1068
телӗ 1068
утӑ 1067
шик@@ 1067
ный 1067
килет, 1067
чав@@ 1066
парне@@ 1066
ытти@@ 1066
штур@@ 1066
шар@@ 1066
лле, 1066
вич. 1066
халиччен 1065
on@@ 1065
Эс 1064
килӗ@@ 1064
10. 1064
ar@@ 1064
пуҫланӑ 1063
асӑр@@ 1063
тӗлӗнче 1063
лӗсене 1063
ним@@ 1063
сайра 1063
Вар@@ 1062
ыран 1062
хаяррӑн 1060
ыйтнӑ 1060
пӑрахнӑ 1059
кер 1059
( 1059
нипех 1058
купа@@ 1058
пычӗ, 1058
лес 1057
11. 1057
шавла@@ 1057
ҫуккине 1057
ҫиме 1057
Григори@@ 1057
Амӑшӗ 1056
выр@@ 1055
Ӗҫ@@ 1055
ӗлӗкхи 1055
тиве@@ 1055
ухмах@@ 1053
нӑна 1053
она 1053
Часах 1052
Каза@@ 1051
утрав@@ 1051
шкул 1051
кансӗр@@ 1051
Фа@@ 1051
шухӑшлама 1051
тӗтӗм 1050
макӑр@@ 1050
урисем 1050
хытса 1050
Юр@@ 1049
тов 1049
Кара@@ 1049
Пир@@ 1048
хӗрринчи 1048
f@@ 1048
ăс@@ 1047
Серё@@ 1047
вырăн. 1047
25@@ 1047
-ҫке. 1047
ҫыру@@ 1046
Р 1045
лей@@ 1045
тӑх@@ 1045
2000@@ 1043
Ве@@ 1043
вӑхӑта 1042
пӗлнӗ 1042
тур 1042
командир@@ 1042
тӗртсе 1041
бом@@ 1041
пулмарӗ. 1040
тавраш@@ 1040
тӗн 1040
ялти 1039
юлашкинчен 1039
савӑнӑҫлӑ 1039
ган 1038
санах, 1038
пусма 1038
хӑт@@ 1038
питӗр@@ 1037
-ха… 1037
килнӗ. 1036
Чи@@ 1036
ксем, 1036
шута 1036
иккен 1036
ҫапа@@ 1036
мӗн, 1035
тĕп 1035
рӗпе 1035
тени 1035
кайсан, 1035
янӑ, 1034
айккин@@ 1034
Пер@@ 1034
нумайӑ@@ 1033
ланса, 1033
скер. 1033
сула@@ 1033
асӑрхат@@ 1032
ҫывӑрма 1032
гер@@ 1032
рӑр@@ 1032
ӳпке@@ 1032
хыҫал@@ 1031
тенкӗ 1030
Констан@@ 1030
пынине 1030
обще@@ 1029
тӗплӗн 1028
иксӗмӗр 1028
низ@@ 1027
хисем 1027
кел 1026
анне 1026
ел@@ 1026
текех 1024
хатӗр 1024
курӑнакан 1024
пайӑр@@ 1024
пӑрӑнса 1024
кӑртат@@ 1023
тупӑн@@ 1023
тырӑ 1023
хӗрача@@ 1023
тӑрать 1022
юри@@ 1021
пӗлес 1021
Ленин@@ 1021
вĕ 1021
тупса 1019
бер@@ 1019
Ҫул 1018
каҫхине 1017
тивӗҫлӗ 1016
Сӗ@@ 1016
меха@@ 1016
Иисус 1015
тухакан 1015
нисемпе 1015
тӑп… 1015
типе 1015
сенех 1014
ӳссе 1014
пулмалла, 1014
пор@@ 1014
ника 1013
пе. 1012
Николаевич 1012
пулмасть 1012
фон@@ 1011
маларах 1011
шай@@ 1010
эк@@ 1010
тапса 1009
тӑвакан 1009
палă@@ 1009
ҫӗрелле 1008
Муска@@ 1008
уҫӑл@@ 1008
Пур 1008
пысӑк@@ 1008
матро@@ 1007
Виктор 1007
Юлашкинчен 1007
юлчӗ. 1006
пӗрин 1006
лен 1005
ери@@ 1005
хӗрӗ@@ 1004
тесессӗн 1003
ҫитме 1003
чӑрман@@ 1003
ӳкрӗ. 1003
тунӑ, 1003
турат@@ 1003
гар@@ 1002
190@@ 1002
килме 1002
стсем 1002
пӑлхан@@ 1001
хӑвна 1001
тивĕç@@ 1001
рӑмӑр 1001
Ҫе@@ 1001
ч. 1001
проек@@ 1001
ччен, 1000
ав 999
пуҫа 999
кило@@ 999
пурнӑ@@ 999
журна@@ 998
уйӑхӗн 998
пӗре@@ 998
авӑ@@ 998
хамӑрӑн 998
пӗр-@@ 996
тӑсса 996
ратпӑр. 996
илнӗ@@ 996
савӑнӑҫ@@ 996
ҫет@@ 995
салам@@ 995
12. 995
вӗсем. 994
ерипен 994
мил@@ 994
сӑр, 994
тупма 993
хӑех 993
кинчен 993
тимӗр@@ 992
ыйтӑ@@ 992
Михаил 992
k@@ 992
савӑнса 992
куша@@ 992
тю@@ 991
тӑмӑр 991
аллинче 991
клӗ 990
ответлерӗ 990
Каллех 990
майӗпен 989
темшӗн 989
-мӗшӗнче 989
мини@@ 987
рӑр 987
çул 987
пӗтернӗ 986
тӑмӗш 986
нӑ! 986
ланă@@ 986
ялан 986
Ил@@ 985
Ильич 985
кĕре@@ 985
хӑлха@@ 984
турта@@ 984
Ло@@ 984
тса, 984
тӑван@@ 983
тӑрта@@ 983
мон@@ 982
ҫителӗк@@ 982
команди@@ 981
шин@@ 981
сăк 980
малти 980
мӗ. 980
ска 980
кӑларма 980
тухрӗҫ. 979
каҫхи 979
Шыв 979
священ@@ 979
салхул@@ 978
тӑсӑ@@ 978
13. 977
ҫийӗн 977
пӑс@@ 976
черен 976
зи 976
t 976
X@@ 976
ҫанталӑк 975
курас 975
ӗмӗтлен@@ 975
лекен 974
or@@ 974
юлнӑ. 974
пулман@@ 974
уйрӑмах 973
вӗҫтер@@ 973
Ӳ@@ 973
сыл@@ 973
бор@@ 973
исто@@ 973
ларчӗ 973
кӑна. 972
кух@@ 972
ырӑ@@ 972
куҫар@@ 971
Пы@@ 971
инкек 971
туян@@ 971
тусан 970
урапа 969
пырса, 969
хӑю@@ 969
урам 968
тӗрт@@ 966
ли. 966
ҫитей@@ 966
йыт@@ 965
вӑтан@@ 965
тикӗ@@ 965
ĕр 963
кирлӗ. 963
24@@ 963
ҫумӗнче 963
лӑм 962
тарӑхса 962
ӑна? 961
Йывӑ@@ 961
винтов@@ 961
илет 960
-йӗр@@ 960
ӳллӗн 960
никӗ@@ 960
шипе 959
-ҫа@@ 959
канӑҫ@@ 959
кайрӑм. 958
васкаса 958
япаласене 958
тимлӗн 958
çурал@@ 957
каять, 957
Гал@@ 957
савӑнӑҫлӑн 957
плат@@ 957
чуна 956
васкав@@ 956
шывӗ 956
!@@ 956
серен 956
пиҫих@@ 956
тытă@@ 956
хӑрах 956
чĕ. 955
тӑр! 955
лет. 955
те… 955
Сер@@ 955
хитре 955
.) 954
урӑ@@ 954
Иерусали@@ 953
канаш@@ 952
нӑн. 951
кӑран 950
алӑх@@ 950
пытанса 950
Ильи@@ 950
патне, 950
хуҫа 950
23@@ 949
лараҫҫӗ. 949
ал 949
тенине 948
арти@@ 948
пуҫтарӑн@@ 947
каҫса 947
тон@@ 947
кӗлен@@ 946
зин 946
кӑмака 946
мун@@ 945
кунсенче 945
хӑнӑ@@ 945
Ген@@ 945
тапӑн@@ 945
юлаш@@ 944
Кайран 944
калакан 943
тӑсӑлса 943
тӳрлет@@ 942
хӗрӗ 941
выртнӑ 941
трен 940
кке 940
сирп@@ 940
«С@@ 939
ҫитиччен 939
пулмалла 939
Халӑх 939
хупӑрласа 939
хӑварнӑ 939
чӗҫ: 938
чӗререн 938
типӗ 938
кӗмӗл 937
ҫирӗплет@@ 936
Обломо@@ 936
ҫитнӗ. 936
14. 936
., 935
мӗнпе 935
туни 935
ерт@@ 935
таҫ@@ 935
шса 935
рон 935
кабин@@ 935
сӑмахӗсене 934
лӑн, 934
хута 934
пуян@@ 934
килне 934
хӑна 934
ӗҫлесе 933
лы@@ 933
Вӑхӑ@@ 933
х… 933
туртӑн@@ 933
штаб@@ 933
L@@ 933
паллă 932
шин 932
D@@ 932
цсем 931
çын@@ 931
ҫапӑҫу 931
Марья 931
R@@ 931
тавлаш@@ 931
пукан 931
сӑрах 930
пӗтсе 930
хӗрсе 929
ҫын. 929
сӑмахпа 929
кӑмӑлӗ 929
рӑна 929
ҫух@@ 929
ҫӑм 929
шер@@ 929
впа 928
ника@@ 928
тӗнчере 928
ячӗ: 927
ҫурта 927
тӑр? 927
вз@@ 927
Степан 926
вӗсене@@ 925
лерех 925
Ты@@ 925
Нумай 925
Йы@@ 925
ҫинҫе 924
сло@@ 924
ченех 924
ушкӑ@@ 923
пӗрех 923
тӑраҫҫӗ, 922
ҫемҫе 922
Фро@@ 921
мов 921
лаптăкĕ 920
сад@@ 920
курман 920
бю@@ 920
ри. 920
ю 919
Ефи@@ 919
шӑплан@@ 919
меш@@ 918
апат-ҫимӗ@@ 918
ҫунтарса 918
Çур@@ 918
пилӗ@@ 918
ль. 917
тухнӑ, 917
дон 917
ӳллӗ 916
уйрӑл@@ 916
27@@ 916
суран@@ 916
пӑшӑлтатса 915
ласах 915
рӑмӗ 915
ыйту 915
ос@@ 915
пулман, 914
щик@@ 914
Мака@@ 914
пӳлӗм 914
Вӑт 914
нихӑҫан 913
юса@@ 913
Шупашка@@ 913
килет 913
текен@@ 913
ны@@ 913
ря@@ 912
y@@ 911
арка@@ 910
нах, 910
сшӗн 910
Кол@@ 910
пӗ 910
варринче 910
ҫум@@ 909
тĕн@@ 909
Украина 909
халăх 908
Гор@@ 908
ячӗҫ. 908
ҫимӗ@@ 907
сме@@ 907
пулчӗҫ. 907
графи@@ 907
ҫӑварне 907
кӑтартрӗ. 907
Амери@@ 906
15. 906
шутне 906
пуҫне, 905
вӑл! 905
ирӗксӗрех 904
калать. 904
маҫҫӗ, 904
юхать. 904
пиччӗ@@ 904
нова 904
хулара 903
кке@@ 903
месӗрех 902
хайхи 902
учитель@@ 902
мӗр, 902
патшалăх 901
мар… 901
хен@@ 901
хинче 900
вӑтӑр 900
ҫен 900
тарчӗ, 900
шине@@ 900
ларнӑ, 899
бил@@ 899
ҫӑва@@ 899
емӗн 899
çине 899
пӗлекен 899
№-@@ 899
аслă 898
сун@@ 898
юлташ, 898
000@@ 898
пеме 897
каяҫҫӗ. 897
пӑчӑ@@ 897
терех 897
шӑна 897
унтан, 897
22@@ 897
лне 896
вулама 896
нау@@ 896
ĕмĕр@@ 896
Воро@@ 896
-ху@@ 896
w@@ 895
ҫӑмӑ@@ 895
17. 895
пунк@@ 894
ло 894
ҫӗршыв 893
Петя 893
пĕл@@ 893
дер@@ 893
Гра@@ 893
чунӑ@@ 892
ҫӗм 891
телейлӗ 890
ӗҫсе 890
вилӗм 890
кӑрта@@ 889
ӗш@@ 888
илле 888
Василье@@ 888
пӑр! 888
бри@@ 887
вӑнса 887
акӑ, 887
мĕш 887
ер 886
кĕ 886
ха, 886
тапӑ@@ 885
усӑн@@ 885
пала@@ 885
16. 885
рик@@ 885
х-@@ 885
калаҫу 884
ӗрӗ@@ 884
ҫӑлтӑр@@ 884
-си@@ 884
фон 884
коро@@ 884
кӗрет. 884
at@@ 884
ҫунса 883
тӳссе 882
рсем 882
СССР 882
Темиҫе 882
сӑрӑн 881
отряд@@ 881
пынӑ, 880
секретар@@ 880
лерӗ, 880
паттӑр@@ 880
Нимӗн 880
ҫӑвар@@ 880
çĕн@@ 879
Чӑн@@ 879
суна@@ 878
аннӑ 878
те:— 878
йӑнӑш@@ 878
тара 878
. @@ 878
ша. 878
Фе@@ 877
ÿ@@ 877
тулта@@ 877
нпа 877
вӑра@@ 877
та-@@ 876
При@@ 876
ҫийӗнчех 876
тинӗ@@ 876
эппин@@ 876
сӑмси 875
пка 875
вӑрах@@ 875
чин@@ 875
çыран@@ 875
юха@@ 874
Ван@@ 874
еро@@ 873
тăр 873
вилсе 873
уҫӑлса 873
опера@@ 872
хӑрушӑ@@ 871
вӗренсе 871
сессӗн, 871
хӗстер@@ 871
ещ@@ 871
щи@@ 871
ҫулпа 870
мисем 870
юлташӗ@@ 870
ӗ-@@ 870
Яков 869
тарт@@ 869
Давыдов 869
лартнӑ. 868
гео@@ 867
пӗртте 867
вой@@ 867
нӑран 867
-мӗн 867
парти@@ 866
ҫулӗ 866
е-@@ 865
йышши 865
так 865
маях 865
ĕсене 865
Заха@@ 865
Ҫакӑ 865
кап@@ 864
ҫамрӑк@@ 864
хӑтла@@ 864
ленине 864
ҫухат@@ 864
-мӗн. 863
хисепле@@ 863
ҫунат@@ 863
салтаксем 863
рӑнӑ@@ 862
нов, 862
ҫавӑнта 862
кӑтартма 862
астӑва@@ 862
пӗркелен@@ 861
крех 861
сассӑн 860
аллӑ 860
шла 859
хӑвӑрттӑн 859
реги@@ 859
çулсенче 859
пулсассӑн, 859
пыл@@ 858
Петь@@ 858
мла@@ 858
10300@@ 858
хӑрат@@ 858
пултӑр, 858
шӗн-ха 857
хӑма 857
килнӗ@@ 857
паян@@ 857
шӳт@@ 857
корпус@@ 856
тыр@@ 856
марӗҫ. 855
Дон 855
тавӑр@@ 855
колхоз 854
иртрӗ. 854
ҫурӑмӗ 854
ку, 854
рӑ 853
Вал@@ 853
илет, 852
чӗне@@ 852
кӗпӗр@@ 852
чи, 852
вӗренме 851
утӑм 851
ҫулӑ@@ 851
вод@@ 851
Тар@@ 851
тусӑ@@ 850
хи, 850
чӑтса 849
Жен@@ 849
мир@@ 848
калани 848
Хура 848
ҫӗкле@@ 848
ӑнсӑртран 848
Хи@@ 848
18. 848
N@@ 848
пулмалла@@ 847
инҫе@@ 847
калать 847
ҫыпӑҫ@@ 847
Сав@@ 846
ҫий@@ 846
тутлӑ 846
Аслă 846
ре. 845
ллех 845
пулнă. 844
патшалӑ@@ 844
Ҫӳл@@ 844
усра@@ 843
сирсе 843
чо@@ 842
театр@@ 842
янӑра@@ 842
капитан@@ 842
ҫав. 842
рӑм: 841
кура 841
млӑ 841
Ше@@ 840
ок@@ 840
шуйт@@ 839
анне@@ 839
докумен@@ 838
ех, 838
чарӑнчӗ. 838
марӑм. 838
хин 838
-ши@@ 838
сӗр, 837
сарӑлса 837
Хӑвӑн 837
чӗре 837
Тав@@ 835
лев@@ 835
йӗкӗ@@ 835
Чӗр@@ 835
лла, 834
хан 834
Шур@@ 834
28@@ 834
Хӑйне 834
вырнаçнă. 834
чылайччен 834
яр 833
ӗнер 833
Ани@@ 833
таран@@ 833
ъ@@ 832
паллӑ@@ 832
сакӑр 832
лагер@@ 832
кто@@ 832
тахҫан@@ 832
ӗр. 832
тӳс@@ 831
10 831
латса 831
йывӑҫсем 830
служ@@ 830
ке, 830
йӑнӑ@@ 830
панӑ, 830
кил-@@ 830
цие 830
кова 830
тай 830
Халь@@ 829
Том 829
оке@@ 829
кӗтӗ@@ 829
янӑраса 829
От@@ 829
урама 828
масӑрах, 828
хупса 828
хума 828
ҫеҫ. 828
Эй, 828
пӗрлех 828
апа@@ 827
чĕсем 827
пысӑкӑш 826
ван, 826
эрне 826
коман@@ 826
50@@ 825
çырав@@ 825
сире, 825
кӑшкӑ@@ 825
Кӗҫ@@ 824
ҫӑмӑллӑн 824
шах 823
сур@@ 823
ья@@ 823
пан 823
-ши, 823
Сывлӑ@@ 822
хов 822
ртарах 821
рӗсене 821
189@@ 821
ҫӳрет. 821
япалана 821
йӗркеллӗ 821
уро@@ 821
Пӑх@@ 821
кӑтарта@@ 820
ирĕ@@ 820
Васили@@ 820
юлташ 820
куҫҫуль 820
тӑн-и, 820
хавхалан@@ 820
вет@@ 820
семех 820
тытрӗ 820
чӗлӗ@@ 820
кӑкӑрӗ 819
шӑпа 819
ухма@@ 819
Васильевич 818
пулӑшу 818
кала 817
ряд@@ 817
ҫара@@ 817
сла 817
чă@@ 816
фло@@ 816
ленӗ, 816
инҫе 815
стен@@ 815
зал@@ 815
вĕсем 815
Парти@@ 815
ҫеҫен@@ 814
тӑмӑр@@ 814
кӑри 814
к! 814
сарӑ@@ 813
мерӗ 813
Пысӑк 813
чченхи 813
Ҫамрӑк 812
Юлашки 812
хӗрача 812
мӗнче 812
сасартӑ@@ 812
сшӑн, 812
хӗс@@ 812
Пӗрре 811
пурӗ 811
са-@@ 811
сна 810
есси 810
кашни@@ 810
облаçĕн 810
Анчах, 810
тсен 809
намӑс 809
Аль@@ 809
хушрӗ. 809
кӗмсӗр@@ 809
чет@@ 809
тӑрай@@ 808
пере 808
ӗнче@@ 808
час@@ 808
кинчен, 808
килекен 807
ков, 807
тухас 807
патшалӑх 807
лартма 807
и. 807
енӗ 806
чен. 806
эпир, 806
утрав 806
хӑм@@ 806
сар 806
сре@@ 805
каларӗ, 805
Эй 805
ҫавӑ 805
20 804
пӳлӗмре 804
тухӑҫ@@ 804
хывса 803
ӑнланмалла 803
кино@@ 802
хӗрӗх 802
инженер@@ 802
систер@@ 802
юри 802
рек 801
сунар@@ 801
канскер, 801
шуйттан 801
прин@@ 801
сарӑл@@ 801
ем 801
.19@@ 801
пӗрмаях 800
шутланӑ 800
ĕнчен 800
тухса, 799
Ҫул@@ 799
ске@@ 799
эс@@ 799
тинӗс@@ 799
мӑшӑ@@ 798
ҫирӗппӗн 798
хумхан@@ 798
ги 797
сӑва@@ 797
Тӑван 796
каҫӑ@@ 796
вӑрмана 796
самолё@@ 796
пурӑнӑҫ@@ 796
«П@@ 796
Эсӗ, 796
ăм@@ 796
тпӑр. 795
ларса, 795
хучӗ: 795
та: 795
Пӗррехинче 795
Павлов@@ 795
курнӑ. 794
ччӗ… 794
Пагане@@ 794
льне 794
леке@@ 794
лӗхӗ@@ 794
пичче 794
йӑна 794
ьер@@ 793
айӑпла@@ 793
командирӗ 793
вӑрҫ@@ 793
300@@ 793
хыççăн 792
калаҫнине 792
лӑх, 792
I 792
сса@@ 791
нăн 791
Каш@@ 791
кӑшса 791
ял. 791
чӑт@@ 791
тусӗ@@ 791
вайхи 791
Лешӗ 791
is@@ 791
Ҫакӑн@@ 790
ывӑлне 790
ҫилен@@ 790
килнине 790
кӗпе@@ 790
ҫӳрет@@ 789
Вик@@ 789
лӗхне 789
амӑшне 789
малашне 789
чан 788
Гидрологи 788
тĕпчевленӳ 788
кинче 788
илтер@@ 788
Ак@@ 787
нишӗн 787
аллисем 787
танах 787
ҫанталӑ@@ 786
пӗлетӗн@@ 786
кий 786
партизансем 786
шав 786
пайне 786
илтӗнчӗ. 786
Ӗҫ 786
м… 786
d 786
тори@@ 785
иртнине 785
уйӑр@@ 785
сӑмахсемпе 784
Египе@@ 784
пултарнӑ 784
цен@@ 784
хӗрне 784
пӑтра@@ 784
çыр@@ 783
палласа 783
рашта@@ 783
урине 783
каярах 782
12 782
Вера 782
М. 782
ишӗ@@ 782
Василь@@ 782
кирлине 782
картиш@@ 781
ӗҫсене 781
сывпуллаш@@ 781
йӗп@@ 781
тенӗ@@ 781
сывлӑшра 781
Вер@@ 781
19. 781
ккине 780
Кондрать@@ 780
Аслӑ 780
нь 780
?! 779
ланнӑ. 779
Ҫывӑ@@ 779
шӑтӑк 779
илтӗнет. 779
тӗр. 779
вӑрӑм@@ 779
мрен 778
пултаракан 777
хушнӑ 777
Хӗвел 777
чӗ-@@ 777
ҫынсем, 777
теҫҫӗ, 777
йӑлтӑртатса 776
анчӗ. 776
Мару@@ 776
W@@ 776
васкамасӑр 776
Мария 776
пӗтерсе 776
чĕ, 776
юрӑ@@ 776
ӗлӗк 775
Унпа 775
ку? 775
Ырӑ 775
лах@@ 775
ӗҫлет@@ 775
ятар@@ 774
пултарнӑ. 774
чӗлхе@@ 774
х: 774
ярас 774
Росси@@ 774
es@@ 773
тӑрӑшса 773
пуласса 773
сем; 773
хӑйӑр 773
вӗҫтерсе 773
пачӗ, 772
Ӗнтӗ 772
ез@@ 772
терес 772
град@@ 772
чене 772
урайне 772
V@@ 772
Пурне 772
вĕç@@ 771
хаяр@@ 771
крыльца 771
шул@@ 771
20. 770
пуҫларӗ: 770
çинче 770
клат@@ 770
нимӗ@@ 770
рев@@ 770
ӗмӗр 769
Май@@ 769
Ҫапла@@ 769
Ӑҫтан 769
унăн 768
Ача 768
наш@@ 768
ыйтрӗ: 768
ким@@ 767
эппин, 766
кӗчӗ 766
сулса 766
тӑхӑнса 766
хулине 765
ҫӳҫне 765
тон 765
чап@@ 765
парти 765
Старик 765
тек@@ 765
куҫхарши@@ 765
фаши@@ 765
тарас@@ 765
ратчӗ. 764
Але@@ 764
логи@@ 764
тытӑннӑ. 764
ҫӑн@@ 764
хуллен@@ 764
пӑсӑ@@ 763
сивӗ@@ 763
29@@ 763
саккун@@ 763
Пан@@ 762
Атте 762
ирӗке 762
пӑхӑ@@ 762
тка 762
дан@@ 761
таль@@ 761
музы@@ 760
Пар@@ 760
у, 760
хӗрри@@ 760
Матве@@ 760
чем 760
урам@@ 760
пыта@@ 759
Н. 759
ҫырт@@ 758
орден@@ 758
алли@@ 758
лӑхра 758
гре@@ 757
ака@@ 757
l 757
сике@@ 757
ради@@ 757
ҫынсемпе 757
офи@@ 757
рать 756
сержан@@ 756
офицер 756
лев 756
хӗҫпӑшал@@ 756
дра@@ 756
Ирт@@ 756
пытарса 756
иччен 755
шӑл 755
тумтир@@ 755
-мĕш@@ 755
аре@@ 755
рез@@ 754
" 754
пурă@@ 754
пла 753
ленĕ. 753
лать, 753
ӳкӗт@@ 753
нене 753
станиц@@ 753
шырама 753
км@@ 752
чипер 752
хапха 752
26@@ 752
пуле@@ 752
-им 752
Ор@@ 751
Сере@@ 751
пырать 751
кӑкӑр@@ 751
нӗ; 751
ҫаврӑна@@ 751
тыткӑна 751
тул 750
хак@@ 750
хуравла@@ 750
ывӑлӑ@@ 750
ҫулӑм 749
нет 749
йӗрсе 749
хисене 749
малта 749
Ок@@ 748
Халех 748
ӗҫпе 748
спорт 748
лӑпкӑ@@ 748
унта? 748
тавӑрчӗ 748
вӑрӑ@@ 748
нӑ? 748
те! 747
ҫакӑнта 747
компа@@ 747
канни 747
в-@@ 747
карту@@ 747
ние 746
юратакан 746
шанчӑк@@ 746
пычӗҫ. 746
рӗ! 746
юратса 745
шухӑшланӑ 745
Шы@@ 745
чӑк@@ 745
мар-и? 744
Ҫит@@ 744
раса 744
таврӑннӑ 744
патши 744
сасӑсем 744
сирӗнпе 744
сум@@ 744
ье 744
ачасен 743
ере, 743
вӗсене, 743
тӗк@@ 743
хӗррипе 743
Сталин 743
калать, 743
град 742
карта 742
каймалла 742
само@@ 742
чирлӗ 742
пушшех 742
ью@@ 741
ирхи 741
Прокоф@@ 741
тултар@@ 741
лана 741
ҫута@@ 741
ют@@ 741
ир 741
вӑл: 741
выртнӑ. 740
тӑшмана 740
ӳсӗр 740
най@@ 740
ник, 740
лӑхах 739
артиллери 739
сипе 739
кӑвакар@@ 739
месле@@ 738
Макси@@ 738
ҫӗршы@@ 738
арӑм 738
6-мĕш 738
асап@@ 738
сывлӑх 738
ҫитӗ@@ 737
(«@@ 737
коридо@@ 737
Раҫҫей 737
этем@@ 736
ля 736
вӗрене@@ 736
G@@ 736
лиц@@ 736
кайрӗҫ, 736
ль, 735
мухтав@@ 735
çулта@@ 735
ҫитмен@@ 735
Давид 735
рӑк 734
ӗнчех 734
21. 734
кле@@ 734
сон 734
милли@@ 734
майо@@ 734
ная 734
кайни 734
алӑкӗ 734
лашине 734
хӑпарт@@ 734
ҫурма 733
ччӑр 733
рла@@ 733
хӗвела@@ 733
Ҫӗ@@ 733
ҫавнашкал 733
ӗлсе 733
тӑпа 732
утма 732
саман@@ 732
отря@@ 731
Ҫӳлхуҫана 730
ин 730
хӳт@@ 730
пӗрмай 730
хӳме 730
вӗн 730
команда 730
спа 729
пулнипе 729
40@@ 729
логи 729
тӑршш@@ 729
ҫурчӗ 729
ăннă. 729
рассине 729
пӑхсан, 728
уҫҫӑн 728
сиктер@@ 728
пурӑннӑ. 728
тӗксӗм@@ 728
шӳт 728
ch@@ 728
выртрӗ. 727
ца@@ 727
тутӑр@@ 726
ӳт-@@ 726
хаваслӑ 726
ӗнтӗ! 726
теҫҫӗ 726
кӑм@@ 726
хӗн@@ 726
тиш@@ 725
ӑнланма 725
пулать! 725
Тӑш@@ 724
рус 724
дий 724
F@@ 724
рик 724
прав@@ 724
5-мĕш 723
стӑ@@ 723
бро@@ 723
ӑшшӑн 723
ҫӑма@@ 722
кайсан 722
порт@@ 722
тӑни 722
ри-@@ 722
каланӑ. 722
кӳре@@ 721
килен@@ 721
тăрăх@@ 721
циал@@ 721
вӑрҫӑ@@ 721
ҫитсен 721
плен@@ 720
Сем@@ 720
диа@@ 720
палӑрта@@ 720
тӗксӗ@@ 720
тӑхта@@ 719
дина@@ 719
рем@@ 719
Пул@@ 719
çă 719
вырӑнӗ 718
вара. 718
тавӑрса 718
тери@@ 718
муници@@ 718
юрӑ 718
тетӗп 718
кансен 718
кӑпӑ@@ 717
Тинӗ@@ 717
ушкӑнӗ 717
м? 716
вӗҫӗмсӗр 716
йынӑш@@ 716
пуян 716
хушрӗ 716
80@@ 716
лӑ-@@ 716
юпа 716
сыпӑ@@ 715
лару@@ 715
тел 715
И. 715
сӗм@@ 715
нӑ-@@ 714
Зе@@ 714
ҫапӑҫа@@ 714
Би@@ 714
мӑш 714
Тӗлӗн@@ 714
сам@@ 713
ҫапла, 713
тивӗ@@ 713
каять 713
ҫӗпе 713
мухтан@@ 712
выртса 712
юрамасть. 712
вăхă@@ 712
хта@@ 711
ҫен@@ 711
пултӑр. 711
кӗ, 710
сак 710
кайӑксем 710
Обломов 709
яна 709
сара@@ 709
итлеме 709
кантон@@ 709
-ил@@ 709
ҫывхарса 709
пурнӑҫӗ 709
Илья 709
Дмитри@@ 708
колон@@ 708
куҫлӑ 708
кука@@ 708
тытнӑ. 708
тӑвай@@ 708
юнаша@@ 708
пӗтӗмпе 708
мӑйӑх@@ 707
местӗп, 707
пулассине 707
кичем@@ 707
де 707
мат 707
.194@@ 707
ӳксе 707
поез@@ 706
кла 706
H@@ 706
ессе 706
иллӗ 705
стр@@ 705
ҫакнашкал 705
тухсан, 705
рт 705
пекки 705
спе@@ 705
нар 704
кача@@ 704
сиввӗн 704
Кӑнтӑр@@ 704
кунах 704
хӗссе 704
пӗлмесӗр 704
шӑна@@ 704
усă 704
пӗчӗкҫӗ 703
калат@@ 703
Шухӑш@@ 702
Тӗр@@ 702
хӑйӗнчен 702
Чӑн 702
облаç@@ 702
цер@@ 702
ялтан 702
Раз@@ 702
шкула 702
ҫуталса 701
сехетре 701
Офи@@ 701
тейӗн. 701
ӑста@@ 701
ну 701
еҫҫӗ. 701
ҫутат@@ 701
пози@@ 700
ертӳ@@ 700
сте@@ 700
то 700
Федо@@ 700
Сар@@ 700
рать, 700
ыталаса 700
килӗше@@ 699
Кэ@@ 699
эрех@@ 699
лӑхлӑ 699
хуть 699
кӗнӗ. 698
коммуни@@ 698
хӗне@@ 698
Кӗр@@ 698
кантӑк 698
амери@@ 698
лӑнах 697
лха@@ 697
циаллă 697
хине, 697
Хӑш 697
аллинчи 697
курӑнаҫҫӗ. 697
вут-@@ 697
Лайӑх 697
Хӑвӑ@@ 697
ярать. 697
патшалăх@@ 697
тӗлӗш@@ 697
22. 696
Белару@@ 696
тӑртатса 696
мене 696
гин@@ 696
ӗҫме 696
кулӑшла 696
пахча@@ 696
шухӑшсем 696
ленӗ@@ 695
ҫуна 695
шлеп@@ 695
мӗсене 695
им 695
калаҫӑ@@ 695
Мат@@ 695
Ял@@ 695
al@@ 694
йӑр@@ 694
выляса 694
Петербур@@ 694
упӑш@@ 694
ава@@ 694
янах@@ 694
миҫе 694
191@@ 694
анчах, 694
евич, 694
стӑр@@ 693
ппин 693
масӑ@@ 693
капла@@ 693
-ку@@ 692
маҫҫӗ 692
ыйтма 692
килчӗ, 692
чухне@@ 692
самантлӑха 692
пуль, 692
завод@@ 692
самант 692
пурри 692
сӑмса@@ 692
Ҫав@@ 692
дей@@ 691
аякка@@ 691
салху@@ 691
хули 691
ĕш@@ 691
ҫисене 691
йи@@ 691
ӑнланай@@ 691
чавса 690
Женя 690
пӗртен-пӗр 690
хăйĕн 690
вӑйне 690
пӗлет, 690
цов 690
са: 689
комисса@@ 689
ҫӳлӗ 689
кирлӗ, 689
нӗн 689
ҫамки 688
Сен@@ 688
хов@@ 688
япӑх 688
куртӑм. 688
пӑшӑрха@@ 688
мучи 688
минутран 688
капла 688
масан 687
кри@@ 687
it@@ 687
чугун 686
саспал@@ 686
канӗ 686
вăй@@ 686
телей 686
ирсӗр 686
Пуш@@ 685
чӗрӗ@@ 685
Воропа@@ 685
хай 685
хӗре 685
кӗтӳ@@ 685
манӑн@@ 685
ӗмӗт@@ 685
паҫӑ@@ 684
ӗнтӗ… 684
чӗре@@ 684
пала 684
ев, 684
кӳ 684
пӑрахрӗ. 684
са:— 684
маллах 683
шелле@@ 683
тӳле@@ 683
Уй@@ 683
вӑхӑтра, 683
приказ 683
ще@@ 683
ссӗн 683
ева 682
ланӑ@@ 682
суя 682
паль@@ 682
курса, 681
руш@@ 681
el@@ 681
хул@@ 681
полков@@ 679
коми@@ 678
сси, 678
эсир@@ 678
II 678
мас 677
Швейцари@@ 677
час 677
E@@ 677
пат 676
льӑ@@ 676
шак 675
гон@@ 673
Эн@@ 673
вай@@ 672
писем 672
архи@@ 672
нет. 672
60@@ 671
тре 671
студен@@ 670
бое@@ 670
род@@ 670
фу@@ 669
дри@@ 669
иксӗ@@ 668
комсомо@@ 668
Раçç@@ 666
й! 665
лина 665
сӗрех 664
вале@@ 664
ртах 664
став@@ 664
пӗр-пӗр@@ 663
урай@@ 663
мет 663
Дже@@ 662
лли 662
теп@@ 662
Тимофе@@ 661
йт 661
АП@@ 661
генерал 661
Александро@@ 661
нов. 660
сцен@@ 660
«Э@@ 660
Гре@@ 660
полити@@ 659
центр@@ 659
пуҫта@@ 659
строитель@@ 658
дал@@ 658
лет, 658
ҫтан 658
рен, 657
Михайлович 657
член@@ 656
бассейн 656
Красно@@ 655
Сте@@ 655
(18@@ 655
ккин@@ 654
д, 654
млен@@ 654
од@@ 653
коло@@ 652
вед@@ 651
Федор 651
организа@@ 650
табак 649
экономи@@ 649
Давыдо@@ 649
слан@@ 648
Гер@@ 648
Иль@@ 648
Ню@@ 648
сывлӑш@@ 648
раз@@ 647
Ленин 647
«Т@@ 646
вал 646
кулӑ@@ 645
уй-@@ 645
стов@@ 643
ец 643
Союз@@ 642
Мари@@ 642
бла@@ 642
теле 641
нен@@ 640
геро@@ 640
ников 640
мастер@@ 639
шӳ@@ 639
литера@@ 639
правитель@@ 638
(200@@ 638
социал@@ 637
Бал@@ 637
Пра@@ 637
м: 637
ик 637
Анне 636
ком 636
сарла@@ 636
лё@@ 636
зы@@ 635
Эр@@ 634
командир 634
Жу@@ 633
Ана@@ 633
1) 633
Вла@@ 632
тетра@@ 632
СС@@ 631
ну, 631
воз@@ 631
X 631
тени@@ 631
да, 631
ды@@ 631
дар@@ 631
тах, 630
стви@@ 630
ина, 630
щик 629
Ваня 629
ин. 628
администра@@ 628
мисси@@ 627
суту@@ 627
вир@@ 626
); 625
лес@@ 624
5-@@ 624
Леш@@ 623
Гленар@@ 623
кти@@ 623
тив, 623
ic@@ 623
жу@@ 623
Ивано@@ 622
Костя 622
ксӗ@@ 622
бин 621
тӑрах 620
е! 620
he 619
Арка@@ 619
гру@@ 619
Тух@@ 619
фа 618
Зо@@ 618
23. 617
ру 617
Михай@@ 617
кал 617
большеви@@ 616
Шерккей 616
неф@@ 615
Суворо@@ 614
бра@@ 614
мужи@@ 614
поэ@@ 614
упа@@ 613
ист@@ 613
Гар@@ 613
профес@@ 612
кци@@ 612
24. 612
(Г@@ 612
хӗве@@ 612
рт-@@ 612
сут@@ 612
электри@@ 612
ич 612
Дмитрий 611
отряд 611
Пол@@ 611
вас 608
но 608
нах@@ 608
№@@ 608
Джем@@ 608
Мон@@ 607
кня@@ 607
майор 607
рю@@ 607
хавха@@ 607
ка! 607
ед@@ 607
зер@@ 607
ти, 606
спи@@ 605
вӗр 605
150@@ 605
Тро@@ 605
сот@@ 605
O@@ 605
Иу@@ 604
ь. 604
полк 604
номер@@ 603
рем 603
клу@@ 602
чах 602
С. 601
поч@@ 601
Ники@@ 601
Ер@@ 601
эй 601
») 600
рус@@ 600
Наталья 599
ва. 599
Ленька 599
програм@@ 598
хӑру@@ 598
тĕпче@@ 598
Иа@@ 597
стрело@@ 596
Чжа@@ 596
вер 595
30 595
Джи@@ 594
ден 594
а, 594
шах@@ 593
км, 593
Ивановна 593
Дик 593
Само@@ 592
эпи@@ 591
ы 591
спек@@ 591
станци@@ 591
«И@@ 590
шина 589
цы@@ 589
тора 589
моря@@ 588
38@@ 588
ппин@@ 587
ад@@ 587
шка, 587
Христос 586
i 586
сть 586
030@@ 586
йӑх 585
Об@@ 585
тов@@ 584
ине@@ 583
картин@@ 583
красноарме@@ 582
дивизи@@ 582
Тухта@@ 582
дин@@ 581
тинкер@@ 581
ьевич 580
око@@ 580
Пре@@ 579
дво@@ 579
Коми@@ 579
пута@@ 579
?@@ 577
Тим@@ 577
Тем 577
фан@@ 576
бай@@ 576
Елена 576
Валерий 576
поле@@ 576
мсӗр@@ 575
поля@@ 575
жан@@ 575
стена@@ 574
хутор@@ 574
(, 573
м» 572
меди@@ 572
граждан@@ 571
роман@@ 571
заво@@ 570
Тимофей 570
ари@@ 570
кӑ, 570
Тер@@ 569
Авдо@@ 569
капи@@ 569
дан 568
приказ@@ 568
III 568
рий 568
ринчи 568
Иуде@@ 567
рта 567
Дан@@ 567
Иванов@@ 567
ара@@ 566
ряд 566
фин@@ 566
прия@@ 566
каса@@ 566
Джон 565
лейтенант 565
ol@@ 565
мас@@ 565
би 564
Чка@@ 564
лён@@ 563
бр@@ 563
сть@@ 563
Сань@@ 563
шкин 562
13011@@ 562
окру@@ 562
ремӗш 562
суд@@ 561
на! 561
кина 561
Поли@@ 560
1-@@ 560
ҫта 560
инов@@ 559
Черны@@ 559
инстру@@ 559
ĕмĕ@@ 559
Прохор 559
ка» 558
алӑх 558
Мер@@ 557
цкий 556
Брита@@ 556
Озеро@@ 555
% 554
район 554
хал 554
Кри@@ 553
коф@@ 553
Иоси@@ 553
малтан@@ 552
вай 552
ид@@ 552
.: 552
«У@@ 551
мара 550
сти 550
Нина 550
15 550
мор@@ 549
Ур@@ 548
филосо@@ 548
гель@@ 548
генера@@ 548
кин, 546
университе@@ 546
ц, 546
Гав@@ 546
y 546
грам@@ 546
Пари@@ 546
Лар@@ 545
25. 544
муз@@ 544
сып@@ 544
ее 544
Франци@@ 544
сыва@@ 543
%@@ 543
е? 543
экспеди@@ 542
ень@@ 542
лу 542
o 542
Владими@@ 541
мович 541
Сяо 541
6, 541
ма-@@ 540
39@@ 540
суха@@ 540
Бело@@ 539
жо@@ 538
смо@@ 538
ou@@ 538
Ната@@ 538
сов 537
Зоя 537
физи@@ 536
ма! 536
ҫывха@@ 536
нет, 535
ш, 534
бал@@ 534
импера@@ 534
Бар@@ 534
Под@@ 533
гри@@ 533
оло@@ 533
самант@@ 533
7, 533
пионер@@ 533
на-@@ 532
электро@@ 532
Коман@@ 532
Коль@@ 532
шку@@ 531
Фед@@ 531
кавалер@@ 530
тий 530
К 530
стере@@ 530
Олег 530
Эк@@ 530
Филип@@ 529
режисс@@ 529
Еф@@ 529
или 529
спо@@ 529
3, 528
услови@@ 528
Марий@@ 528
37@@ 528
обо@@ 527
хăй@@ 527
не! 527
француз@@ 527
Уэл@@ 527
фабри@@ 526
лович 526
пет@@ 526
рович 525
26. 525
стре@@ 524
Виль@@ 524
ской 524
Ирина 524
лини@@ 524
Кана@@ 524
Вен@@ 523
казак 522
суд 522
Ильинич@@ 522
Коля 521
Зал@@ 521
чество 521
мӑр, 521
дов 520
Анти@@ 520
провин@@ 520
Штоль@@ 520
Митя 520
я» 519
элемен@@ 519
П 518
гражда@@ 518
О 518
Татьяна 517
Тутар@@ 517
лер 517
элек@@ 517
ши, 517
4, 516
хин@@ 515
профессо@@ 515
Хар@@ 515
те-@@ 515
фак@@ 515
материал@@ 514
рет 514
Афри@@ 514
чо 513
батаре@@ 513
XV@@ 513
чыла@@ 512
ăваш 512
лка@@ 512
ченко 511
ила 511
сты@@ 511
пред@@ 511
Тихо@@ 510
27. 510
йӗри-@@ 510
ной 509
Лозне@@ 509
Лена 508
поме@@ 508
воро@@ 508
ки. 508
хват@@ 508
н-@@ 507
шши 507
z@@ 507
ко, 507
палу@@ 507
Христо@@ 506
реда@@ 506
го 506
ам@@ 505
спорт@@ 505
115@@ 505
самолет 505
вича 504
Ев@@ 504
кин. 503
Его@@ 503
Артамо@@ 503
ката@@ 503
евна, 502
хрес@@ 502
цион@@ 502
Уль@@ 500
Пантелей 500
ней@@ 500
пулемет@@ 500
учили@@ 499
ам 499
Бори@@ 499
Ҫам@@ 499
Сергей. 498
5, 498
господ@@ 498
Кузьми@@ 498
хурав@@ 497
кала, 497
господин 496
r 496
учен@@ 496
баш@@ 496
зу@@ 494
лик 494
дре@@ 494
Ильсеяр 493
радио@@ 493
интер@@ 492
грана@@ 492
«Ка@@ 492
ил, 492
Ну 492
ник. 491
Сто@@ 491
Катер@@ 491
цев 491
Спа@@ 490
мсӗр 490
Игна@@ 490
горо@@ 490
слав 490
Корча@@ 489
ялан@@ 489
нике 488
гро@@ 488
мала 488
вос@@ 487
стан 487
Лё@@ 487
ька 486
Украин@@ 486
рак@@ 485
Матвей 484
Соф@@ 483
тали@@ 483
ту, 483
пали@@ 483
es 483
ут 483
полковник 483
]@@ 482
Дун@@ 482
км. 482
С 481
вель@@ 481
70@@ 481
П. 480
дире@@ 479
мӑшӗ 479
воль@@ 479
писа@@ 479
Васька 478
хоз@@ 478
Шура 476
нача@@ 476
Никифо@@ 476
(199@@ 476
чук 475
ске 475
институ@@ 475
план 475
вод 474
Нико@@ 474
-э@@ 474
Фома 474
полк@@ 474
симӗ@@ 474
Евг@@ 473
отде@@ 472
ваго@@ 471
il@@ 470
us@@ 470
пассажи@@ 470
ча, 469
писто@@ 469
11 468
чев 468
мото@@ 468
Сини@@ 468
Один@@ 468
ов 467
Афана@@ 467
техни@@ 467
каз@@ 467
сир, 466
121111000@@ 466
er 465
Валь@@ 465
тё@@ 465
пӗчӗ@@ 465
Щор@@ 465
палат@@ 464
Стеф@@ 464
юна@@ 464
век 463
Гро@@ 463
щен@@ 463
Ели@@ 463
28. 462
точ@@ 462
на? 462
Сэн@@ 462
чей@@ 461
Го 461
Иса@@ 461
Теле@@ 461
фран@@ 461
«О@@ 461
Ҫӗн@@ 460
крепо@@ 460
она@@ 459
лёт@@ 459
шӑппӑ@@ 459
нег@@ 459
ферен@@ 459
Из@@ 459
бы@@ 458
наступ@@ 458
бен@@ 458
тябр@@ 458
бли@@ 458
«В@@ 458
Батманов 458
Бур@@ 458
раш@@ 457
пло@@ 457
Александ@@ 457
re@@ 457
Иваны@@ 457
мино@@ 456
(194@@ 456
Жи@@ 456
авиа@@ 456
База@@ 456
лам 455
г, 455
гай@@ 455
ra@@ 455
дор 454
Федя 454
систе@@ 453
президен@@ 453
Соломо@@ 453
90@@ 453
йӑлта@@ 453
Веро@@ 452
Кост@@ 452
импери@@ 452
труб@@ 452
нец 452
стӑва@@ 452
Нев@@ 452
фото@@ 451
старик, 451
100212@@ 451
комп@@ 451
Ага@@ 451
Огнянов 451
Усть-@@ 451
Сергей, 450
Санька 450
утра@@ 450
Дар@@ 450
Григор@@ 450
Екатер@@ 449
пове@@ 449
Ик@@ 449
пир 449
Беридзе 449
фра@@ 448
паро@@ 448
организаци@@ 448
112@@ 448
мл@@ 448
Шеркке@@ 448
марш@@ 447
ути@@ 447
спа@@ 447
кӑма@@ 447
боль@@ 446
ся@@ 446
ёр 446
дон@@ 445
АСС@@ 445
Александрович 445
Вит@@ 445
мей@@ 445
Люд@@ 445
Воло@@ 444
Алексеевич 444
ше 444
Ҫак@@ 444
га, 443
союз@@ 443
..» 443
дж@@ 443
35@@ 443
50 443
пӗтӗ@@ 443
ские 443
мент 443
гимна@@ 442
педаго@@ 442
кли@@ 442
Лопу@@ 442
старо@@ 442
дик@@ 441
Ă@@ 441
Надежда 441
Валентина 441
Аксинья 440
валхи 440
ский, 440
25 440
вине 440
ана 439
Дуня@@ 439
Израил@@ 439
Википе@@ 439
цип@@ 439
Пла@@ 438
001121153000@@ 438
лия 438
зон@@ 438
гвар@@ 438
малаш@@ 438
си, 438
1121030000@@ 438
Кав@@ 437
Кузьмич 437
Гавр@@ 437
вани@@ 436
Ромашов 436
18 435
кино 435
29. 435
фун@@ 435
йӑр 435
сор@@ 435
мур@@ 435
Сталин@@ 434
рехинче 434
вари@@ 434
бух@@ 433
Испа@@ 433
шат@@ 433
Анфи@@ 433
–@@ 433
физ@@ 432
Интер@@ 432
ведени@@ 432
математи@@ 432
of 432
Смо@@ 431
ул 431
дир 431
универси@@ 431
коллек@@ 431
Ган@@ 431
посе@@ 431
Элен@@ 430
Бри@@ 430
ма? 430
Гран@@ 430
по 430
аэрод@@ 429
Хань 429
1, 429
ми, 428
сад 428
учитель 428
188@@ 428
тья 428
Раҫ@@ 428
джи@@ 427
бле@@ 427
сов@@ 427
шал 427
театр 427
шӑлта@@ 427
парт@@ 427
дек@@ 427
Вол@@ 426
объек@@ 426
Чижик 426
информа@@ 426
Бун@@ 426
Оле@@ 426
Мить@@ 426
госпо@@ 425
академи@@ 425
Кла@@ 425
смен@@ 425
1100@@ 425
чет 424
чё@@ 424
Егоро@@ 423
Моисей 422
ков. 422
вать. 422
Борис 422
Юлаш@@ 422
ные 422
Аб@@ 421
площа@@ 421
стер 421
Кузь@@ 420
куп@@ 420
мили@@ 420
худож@@ 420
ква@@ 419
самоле@@ 418
констру@@ 418
Никита 418
фронт 418
Вален@@ 418
Маргари@@ 417
03050@@ 417
Семен 416
аяла@@ 416
прово@@ 415
тив 415
Бай@@ 415
чее 415
as@@ 415
поль@@ 414
теори@@ 414
кипа@@ 413
пӗтӗм@@ 413
ино 411
Ерофей 411
Егор 411
ото@@ 411
Макла@@ 411
вей@@ 411
om@@ 411
78@@ 410
212@@ 410
мол@@ 409
уреа@@ 408
диви@@ 408
36@@ 408
30. 408
инов 408
помощ@@ 407
on 407
Щ@@ 407
ка-@@ 407
валь@@ 406
Вавил@@ 406
V 406
ев. 405
Г. 405
XI@@ 405
Кер@@ 405
е» 405
гов 405
д. 405
циф@@ 404
ъез@@ 404
N 404
лим@@ 404
пехо@@ 404
2-@@ 404
сю@@ 403
ром 403
Тё@@ 403
процен@@ 403
Георгий 403
Тин@@ 403
стр 403
аппара@@ 403
нашка@@ 402
фельд@@ 401
уз@@ 401
циклопе@@ 400
вас@@ 400
Клар@@ 400
Капитан 400
эл@@ 399
IS@@ 399
Коло@@ 399
разведчи@@ 399
ёт 399
нич@@ 399
дия 399
мину@@ 398
14 398
Совет@@ 397
седа@@ 397
рук 396
Лан@@ 396
.. 396
Цюань-ха@@ 396
16 396
9, 395
et@@ 395
Лон@@ 395
3-@@ 394
3) 394
Федоро@@ 394
Влади@@ 394
ri@@ 394
государ@@ 393
17 393
Бау@@ 393
Лукич 393
(198@@ 393
Игнать@@ 392
2) 392
пӗш@@ 392
библиоте@@ 391
U@@ 391
вок@@ 391
Республики 391
Чочой 391
старик. 391
Серг@@ 391
пов 390
инпе 390
гла@@ 390
34@@ 390
Лей@@ 390
Соколо@@ 390
инжен@@ 389
жандар@@ 389
ӗлӗк@@ 389
Анатолий 389
бассей@@ 389
Поль@@ 389
штаб 388
Нагуль@@ 388
ина. 388
Ковшо@@ 387
Палла@@ 387
курт@@ 387
ений 387
зови@@ 386
кӗрей@@ 386
13 386
пун@@ 385
рабо@@ 385
дель@@ 385
дис@@ 385
Гене@@ 385
Яковле@@ 384
ове@@ 384
эн 383
Шо@@ 383
Ры@@ 383
правлени@@ 383
Тёма 382
евич@@ 382
мер 382
цей@@ 382
ҫӳр@@ 382
Михайлов@@ 382
трон@@ 382
вя@@ 381
парта@@ 381
Ги@@ 381
Мин@@ 380
Игор@@ 380
ститу@@ 380
48@@ 380
Бор@@ 380
урал@@ 380
как 379
Луки@@ 379
мистер 379
проро@@ 379
чем@@ 379
нас@@ 379
майӗ@@ 379
Валери@@ 379
Трав@@ 378
Ши@@ 378
19 378
m 378
Австра@@ 378
бло@@ 377
31. 377
ro@@ 376
Петрович, 376
Паттăр@@ 376
эт@@ 376
Евдо@@ 376
Григорьевич 376
Алта@@ 376
Михе@@ 376
чка, 376
Батма@@ 375
Сели@@ 375
112115@@ 375
от 374
дежур@@ 374
2, 374
Труба@@ 374
186@@ 373
патри@@ 373
u 373
дро@@ 373
до 373
Семено@@ 373
строй@@ 373
слу@@ 372
тра, 372
абза@@ 372
Кирса@@ 372
РСФС@@ 372
тавҫӑ@@ 372
Рас@@ 372
часо@@ 371
комите@@ 371
Лао-@@ 371
Гленарван 370
II@@ 370
Учи@@ 369
пору@@ 369
талан@@ 369
сове@@ 369
кет@@ 369
Све@@ 369
21 368
фронта 368
Пётр 368
юб@@ 368
портре@@ 368
ла! 367
мӗл 367
Ас@@ 367
Гру@@ 367
Кӑн@@ 367
Марин@@ 366
47@@ 366
Дэ@@ 366
коза@@ 366
телеграм@@ 366
Пере@@ 366
федера@@ 366
автомо@@ 365
K@@ 365
Мере@@ 365
Ирин@@ 365
шос@@ 364
гни@@ 364
короб@@ 364
Ой, 364
сени@@ 363
Вась@@ 363
Леони@@ 363
ней 363
управ@@ 363
ору@@ 361
дю@@ 361
Ф 360
Робер@@ 360
груп@@ 360
Зи@@ 359
мила 359
ского 359
био@@ 358
сессӗн 358
ций 358
те? 357
1,@@ 357
факуль@@ 357
ст, 357
капита@@ 357
ч! 357
Лень@@ 356
комендан@@ 356
»; 355
костю@@ 355
Ромашо@@ 354
госпи@@ 354
зако@@ 354
чӑмӑ@@ 353
24 353
фут@@ 353
е… 352
генерал@@ 352
эскадриль@@ 352
метал@@ 351
актри@@ 351
тино@@ 351
колхо@@ 351
Фёдоро@@ 351
орга@@ 350
Иису@@ 350
Пуга@@ 350
му 350
Рагу@@ 350
генерал-@@ 350
ку. 349
№ 349
Авра@@ 349
председатель 348
культу@@ 348
секун@@ 348
оборо@@ 347
тыл@@ 347
шты@@ 347
искус@@ 346
столо@@ 345
ҫыпӑ@@ 345
сам 345
мра@@ 345
Брян@@ 345
аллин@@ 344
гль@@ 344
Чапа@@ 344
Зу@@ 343
Пред@@ 342
187@@ 342
Це@@ 342
Ке@@ 342
кси@@ 341
сим@@ 341
буд@@ 341
аэро@@ 341
ов@@ 341
32. 341
Дне@@ 340
Огня@@ 339
кив@@ 339
Аксин@@ 339
вре@@ 339
ний 339
ьев 339
зиден@@ 339
22 338
Ильсе@@ 338
гори@@ 338
при 338
ете 338
экза@@ 337
Эпӗ@@ 337
звен@@ 337
чемо@@ 336
пос@@ 336
сфер@@ 336
Итали@@ 336
Исто@@ 335
нор@@ 335
рок 335
заве@@ 335
130@@ 334
площад@@ 334
терри@@ 334
рал 334
Кат@@ 334
кло@@ 333
сомо@@ 333
Ш 333
am@@ 332
г. 332
департа@@ 332
h 332
брон@@ 332
партизан 332
мель@@ 331
а. 331
иде@@ 331
Фили@@ 331
ке. 330
т… 330
Чочо@@ 330
кой@@ 330
цин@@ 330
ку! 330
49@@ 330
гово@@ 329
ван. 329
мая 329
уч@@ 329
лит@@ 328
над@@ 328
Кру@@ 328
О, 328
хри@@ 328
мира@@ 327
лок 327
полномо@@ 327
ющи@@ 327
тали 327
клад@@ 326
ме. 326
жа, 326
мел 325
темпера@@ 325
Дра@@ 325
вет 325
поро@@ 324
вырнаç@@ 324
зь 323
ремĕш 323
тте 323
мере 323
Ĕ@@ 322
Капи@@ 321
Филь@@ 321
ся, 321
23 321
Татар@@ 321
мӑна@@ 321
зов 321
руб@@ 320
Алек@@ 320
гит@@ 320
куро@@ 320
Боль@@ 320
э 320
волю@@ 320
Чижи@@ 319
J@@ 319
райо@@ 318
стри@@ 318
Бой@@ 318
горизон@@ 318
В 318
рия 317
Мор@@ 317
га. 316
-чӑн 316
1030000@@ 316
зар@@ 315
мучи@@ 315
жин@@ 315
опыт@@ 315
Сло@@ 315
нан 314
Арта@@ 314
й» 313
шев@@ 313
Рабо@@ 313
йт@@ 312
Шупа@@ 311
суб@@ 311
’@@ 311
лад@@ 311
26 310
лий 310
нико@@ 310
ния 309
ле. 308
руках 308
я! 308
дол@@ 308
гли 307
шала 307
директо@@ 307
о-@@ 307
/@@ 307
уста@@ 306
ход@@ 306
ного 306
пита@@ 306
жал@@ 305
командо@@ 305
демо@@ 305
путе@@ 305
мина@@ 305
рей 305
да. 304
шу 304
дине 304
вырна@@ 304
дов@@ 303
представи@@ 303
начальник 303
бутыл@@ 303
шел 302
ных 302
кӑш 302
Маль@@ 301
деле@@ 301
Ново@@ 301
учре@@ 301
е: 301
ление 301
ляр@@ 300
ход 300
Кра@@ 300
ваше 300
спор@@ 300
клан@@ 300
ся. 300
истреби@@ 300
кех 299
мух@@ 299
наци@@ 298
вали@@ 298
g 298
кол@@ 297
еле 297
ось 297
вле@@ 297
x@@ 297
ланд@@ 296
Мини@@ 296
нес 296
вана 296
вни@@ 295
ӗрен 295
Гла@@ 294
слав@@ 294
Крас@@ 294
28 294
пас@@ 294
Васил@@ 294
мя@@ 294
Прохо@@ 293
литерату@@ 293
шело@@ 293
хупӑр@@ 293
нило@@ 292
Рус@@ 292
матема@@ 292
27 292
сли@@ 291
1111@@ 291
ча. 291
блин@@ 291
вино@@ 290
вша@@ 290
каре@@ 289
харши@@ 289
СССР@@ 288
все@@ 288
Администра@@ 288
даль@@ 288
j@@ 288
хуто@@ 287
нӑш@@ 287
нев@@ 286
клет@@ 286
Семен@@ 286
рам@@ 286
чка@@ 285
сво@@ 285
секре@@ 285
зал 285
жи 284
лка 284
газ@@ 283
ждени@@ 283
нови@@ 283
ллен 283
бов@@ 282
— @@ 282
фри@@ 282
нес@@ 282
цар@@ 282
пӗн 282
крат@@ 281
района 281
др@@ 281
отряда 280
чылай@@ 280
гимнази@@ 279
У 279
Свя@@ 279
учи@@ 278
нова@@ 278
пера@@ 278
стра 278
пли@@ 277
вид@@ 277
жда@@ 277
Мил@@ 277
восста@@ 276
Беридз@@ 276
пион@@ 276
ство@@ 273
евро@@ 273
руж@@ 272
фф@@ 272
проли@@ 272
хи. 272
гун 271
Геро@@ 270
тем, 270
юш@@ 270
гна@@ 269
административ@@ 269
мо 269
релле 268
укра@@ 268
тей 268
датель@@ 268
дви@@ 268
крыль@@ 268
Род@@ 268
судь@@ 267
ру, 267
дь 266
пов@@ 266
Моисе@@ 266
тя 266
тель, 265
верси@@ 265
чи. 265
мышлен@@ 264
дз@@ 264
плет@@ 263
ное 263
, — 263
ко. 263
обе@@ 262
произ@@ 262
Бра@@ 261
тера@@ 261
ию@@ 260
шка. 260
1—@@ 260
он, 259
кру@@ 259
зна@@ 259
мец@@ 259
лич@@ 258
запа@@ 258
к… 258
комисси@@ 258
ский. 258
пен 258
... 258
зем@@ 257
ствен@@ 257
том 257
лег@@ 257
рец@@ 256
мёт@@ 256
наш 255
сержант 255
мĕш@@ 255
курат@@ 255
проду@@ 255
ёт@@ 254
5 — 254
Сове@@ 253
вать, 253
ски, 253
о, 253
мов@@ 253
совет@@ 253
Англи@@ 253
опы@@ 252
Чере@@ 252
Силь@@ 252
гост@@ 252
И 251
т: 251
°@@ 251
чие 251
доль@@ 251
ди, 250
вая 250
право 249
чере 249
сист@@ 249
́н@@ 248
лю 248
гнал 248
цент@@ 248
k 248
трен@@ 246
ц. 246
поло@@ 245
город@@ 245
ха. 245
пче@@ 245
прави@@ 245
зала 245
жени@@ 244
Спи@@ 244
провод@@ 244
работ@@ 244
доктор 244
Яков@@ 243
Фё@@ 243
Пой@@ 243
джа@@ 243
цер 243
дне@@ 243
систем@@ 242
бир@@ 242
кӑкӑ@@ 242
ья, 242
Кро@@ 241
свя@@ 241
ское 241
ён@@ 240
тма@@ 240
машо@@ 240
заре@@ 240
моло@@ 239
ьте 239
торо@@ 238
матери@@ 238
Наталь@@ 237
плать@@ 237
31 236
Мен@@ 236
актив@@ 236
пӑх 236
ред@@ 236
Эсӗ@@ 236
хыçç@@ 236
Тать@@ 236
Бере@@ 235
Али@@ 234
пей@@ 234
опер@@ 234
все 234
Дон@@ 234
двор@@ 233
похо@@ 232
стано@@ 232
ори@@ 232
тракто@@ 232
Тре@@ 232
мир 231
заня@@ 231
шек 231
производ@@ 231
сель@@ 231
террито@@ 230
води@@ 230
ющ@@ 229
Госпо@@ 229
пон@@ 228
Ды@@ 228
м; 228
ща@@ 228
зне@@ 227
стру@@ 227
сий@@ 227
туа@@ 226
стин@@ 226
полка 226
ено@@ 226
сей 226
том@@ 225
эле@@ 225
лов, 225
ту. 224
круж@@ 224
эска@@ 224
вол@@ 223
кий, 223
проте@@ 223
спер@@ 223
ство, 222
франц@@ 222
теа@@ 221
ый 221
ет: 221
тал 221
камен@@ 221
кие 219
ог@@ 219
|@@ 219
#@@ 219
яс@@ 218
форма@@ 217
слова@@ 216
тие 216
Мед@@ 216
артиллер@@ 216
Голо@@ 215
Ря@@ 215
ров, 215
«По@@ 214
тех, 214
руководи@@ 214
хӑвӑр@@ 214
час-@@ 213
сон@@ 212
дей 212
комен@@ 212
ст. 212
степен@@ 212
хле@@ 212
вор@@ 211
поход@@ 210
доро@@ 210
пле 210
ции 210
ном 209
", 208
одо@@ 208
Роди@@ 208
Сла@@ 208
глав@@ 208
лей 208
гун@@ 208
Тимо@@ 207
Георги@@ 207
A 207
Изра@@ 207
&@@ 207
капитана 206
щ 206
ение 206
скла@@ 206
корпу@@ 205
губер@@ 205
00112115@@ 204
зира@@ 204
аб@@ 204
всем, 204
партиза@@ 204
ция 203
льд@@ 203
ала 203
мне, 202
пр@@ 202
é@@ 202
энер@@ 202
кус@@ 201
ца, 201
сама 201
них@@ 201
гидро@@ 201
бель@@ 201
л! 200
неш@@ 200
муни@@ 199
за, 199
тина 198
али@@ 198
хими@@ 197
ников@@ 197
чь@@ 197
Бы@@ 197
язы@@ 197
патшал@@ 197
вести@@ 197
пти@@ 196
стара@@ 195
ка? 194
теат@@ 194
Шер@@ 194
закон@@ 194
фило@@ 194
литератур@@ 193
крова@@ 193
чик, 193
к? 192
лко@@ 192
Кре@@ 192
х? 192
вели@@ 192
жер@@ 192
ску@@ 192
хро@@ 191
Цен@@ 191
ким 190
ять 190
лӗрен 189
мед@@ 189
лов. 189
воен@@ 189
из 188
тенан@@ 188
Доро@@ 188
жет 188
чаль@@ 188
фес@@ 188
тов, 187
Сол@@ 187
Тол@@ 187
Поло@@ 187
ил. 187
ты 187
толь@@ 187
фей 186
той 186
стов 186
цов, 185
сков@@ 185
ба, 185
таба@@ 185
уез@@ 185
мн@@ 184
гло@@ 184
л: 184
уди@@ 184
правил@@ 184
Вели@@ 184
c 184
докто@@ 184
авгу@@ 184
бара@@ 184
зор@@ 183
q@@ 183
жур@@ 183
смер@@ 183
сам, 183
шле@@ 182
кури@@ 182
лез@@ 182
1944 182
Бла@@ 182
тиче@@ 182
Y@@ 182
ми. 181
автома@@ 181
ность 180
цеп@@ 179
хол@@ 179
нил 179
зали@@ 179
км². 179
Пысӑ@@ 179
= 179
ноя@@ 179
заме@@ 179
публи@@ 178
Ад@@ 178
расс@@ 178
деми@@ 178
ля. 178
лете@@ 177
год@@ 177
дека@@ 177
поле 176
бре@@ 176
городи@@ 176
ня, 175
сли 175
ды 175
циаль@@ 174
подполь@@ 174
но-@@ 174
з, 173
Дави@@ 172
сно@@ 171
клю@@ 171
интере@@ 171
оре@@ 171
оте@@ 171
характер@@ 170
сассӑ@@ 170
преступ@@ 170
шень@@ 170
Хри@@ 169
стя@@ 169
сӑртран 168
уче@@ 168
чест@@ 168
тут 167
вел 167
Бери@@ 167
шке 167
я? 167
1943 166
Тру@@ 166
прика@@ 166
твор@@ 166
харак@@ 165
ши. 165
взры@@ 165
но, 165
как@@ 165
чески 165
Тӗл@@ 165
жа. 164
во, 164
февра@@ 163
культур@@ 163
ходи@@ 162
ет… 162
правля@@ 162
дам 162
чий 162
пь@@ 161
двига@@ 161
Доб@@ 160
Ско@@ 160
собы@@ 160
Золо@@ 160
ров. 160
Моск@@ 159
» — 159
све@@ 159
эта@@ 158
пира@@ 158
ли! 157
рян@@ 157
пулеме@@ 157
х; 157
днев@@ 157
ҫӳле@@ 157
Миха@@ 157
траль@@ 157
воч@@ 156
приста@@ 156
площадь 156
дя 155
вей 155
оста@@ 155
метро@@ 155
ста, 155
-ҫимӗ@@ 155
мов, 154
ства 154
C 154
ет! 154
Н 154
право@@ 153
ҫанах 153
оде@@ 153
А. @@ 152
коль@@ 152
жить 152
ток 152
p 152
его 151
связ@@ 151
сро@@ 151
край@@ 151
свиде@@ 151
рам 150
мери@@ 150
мӑр. 150
ти. 150
долж@@ 150
Хан@@ 149
Моло@@ 149
апре@@ 149
оруди@@ 149
учени@@ 149
хот@@ 148
сартӑ@@ 148
чени@@ 147
калит@@ 147
чь 146
же 146
сь 146
б, 146
бой@@ 146
гли@@ 146
дови@@ 145
род 145
зь@@ 145
вой, 145
й… 144
ских 144
город 144
преми@@ 144
Швей@@ 144
Кондра@@ 144
Рос@@ 143
трево@@ 142
мени@@ 142
з. 142
Площа@@ 142
лод@@ 142
вела 141
+@@ 141
ям 141
хохо@@ 140
домо@@ 140
ба. 140
водо@@ 139
артиллери@@ 139
вян@@ 139
хва@@ 139
рее@@ 138
ень 138
çĕсен 138
вой. 138
бол@@ 138
Мол@@ 138
т? 137
ху, 137
й? 137
Тет@@ 137
ения 137
ка… 137
+ 137
/ 137
катер@@ 137
награ@@ 136
испол@@ 136
су 136
В. @@ 136
Еро@@ 136
дом 136
лета@@ 136
рим@@ 136
кры@@ 135
вый 135
луч@@ 135
і@@ 135
заста@@ 134
виде@@ 134
шая 133
шко@@ 133
пля@@ 133
ги, 133
Z@@ 133
ҫийӗн@@ 132
цу@@ 132
ума 132
всей 132
ще 132
гда@@ 131
гари@@ 131
ви, 131
носо@@ 131
следова@@ 131
шел, 131
тая 130
ён 130
я: 130
1111000@@ 130
тема@@ 130
пери@@ 130
бело@@ 129
мал 129
шени@@ 129
мят@@ 129
зав@@ 129
фла@@ 129
Мои@@ 128
Еги@@ 128
оч@@ 128
режи@@ 127
квар@@ 127
фигу@@ 127
сывпул@@ 127
каль@@ 127
гене@@ 127
Давы@@ 127
ә@@ 127
оби@@ 127
ческий 127
высо@@ 126
ниче@@ 126
сере@@ 126
ли? 126
блу@@ 126
он. 126
для 126
сед@@ 126
за. 125
Ӗн@@ 125
док 125
ца. 125
чем, 124
шту@@ 124
наз@@ 124
уни@@ 124
жар@@ 123
обре@@ 123
вес@@ 123
чай@@ 122
грани@@ 122
ет? 122
Государ@@ 121
ду 121
ля, 121
след@@ 121
оба 121
воло@@ 120
x 120
нам 120
сне@@ 120
3000@@ 120
ём 119
лый 119
ники 119
Зем@@ 119
вала 118
гим@@ 118
² 118
перев@@ 118
истории 118
зво@@ 118
бо 117
уг@@ 117
w 117
поста@@ 117
сви@@ 117
ступ@@ 117
ью 116
вые 116
лица 116
бас@@ 116
ла: 116
груз@@ 115
ртиллер@@ 115
кам, 115
Т 115
арми@@ 115
я — 115
мы 115
жный 114
ки? 114
ο@@ 113
шех 113
чек 113
плака@@ 112
полу@@ 112
ж, 112
_@@ 112
мни@@ 112
ников, 111
нок 111
гов@@ 111
гне@@ 111
лок@@ 111
вест@@ 110
изо@@ 110
ла… 110
стой@@ 110
отве@@ 110
виль@@ 110
командира 110
гда 109
лаптă@@ 109
Вой@@ 109
ны 109
кни@@ 108
сы 108
Укра@@ 108
Луч@@ 108
Баш@@ 107
Чуваши@@ 107
Слу@@ 107
таре@@ 107
замет@@ 107
Я 106
сир 106
ки… 106
шать 106
сою@@ 106
ня. 106
принима@@ 106
спеди@@ 106
б. 106
то, 106
восто@@ 106
сле 105
л… 105
ском 105
хло@@ 105
лень@@ 104
ки! 104
проз@@ 104
розо@@ 104
гал 104
чу 103
лы 103
ья. 103
эти@@ 103
стол@@ 103
бук@@ 103
сче@@ 103
вание 103
нос@@ 103
сия@@ 103
евра@@ 103
вечер@@ 103
взо@@ 103
хран@@ 102
кора@@ 102
Чуваш@@ 102
Восто@@ 102
пад@@ 102
миро@@ 102
гуля@@ 102
чуваш@@ 101
Дол@@ 101
цы 101
Юхан@@ 101
зы 101
тов. 101
зя@@ 100
горе@@ 100
укреп@@ 99
мень@@ 99
дя@@ 99
их 99
вода 99
соедин@@ 98
вид 98
запи@@ 98
голо@@ 98
сылтă@@ 98
коно@@ 98
дож@@ 97
гу 97
ло, 97
ли… 97
-ҫ@@ 97
пру@@ 96
широ@@ 96
иллер@@ 96
│ 96
й: 96
щу@@ 96
пиро@@ 95
ный, 95
я… 95
М 95
распоря@@ 95
они@@ 95
труд@@ 94
хода 94
пропа@@ 94
шки, 94
рая 93
уви@@ 93
моро@@ 93
лом 93
силь@@ 93
да! 93
ла? 93
боро@@ 93
митри@@ 93
пода@@ 93
выра@@ 93
дит 92
соста@@ 92
Ся@@ 92
сыпа@@ 92
мож@@ 92
чной 92
ки: 91
ü@@ 91
О. 91
нос 91
бок@@ 91
тво@@ 91
мян@@ 91
шь@@ 90
ческая 90
° 90
е; 90
нени@@ 90
гали 90
заклю@@ 90
влен@@ 90
Сле@@ 89
рова@@ 89
Анато@@ 89
ǎ@@ 89
дай 89
йский 89
вил 89
f 88
йте 88
шшĕ 88
Север@@ 88
е — 88
ница@@ 88
S 88
народ@@ 88
Гос@@ 87
сол@@ 87
На 87
З 87
уда@@ 87
́ 87
z 87
енин 87
дет@@ 86
бу 86
Воз@@ 86
Х 86
кумен@@ 86
говор@@ 86
общ@@ 86
сп@@ 86
земля@@ 86
ксӗрех 86
рядо@@ 85
сесс@@ 85
скре@@ 85
цев, 85
мне@@ 85
топо@@ 85
специаль@@ 85
Вот 85
переда@@ 84
выш@@ 84
гур@@ 84
ве, 84
результа@@ 84
Все@@ 84
дно 84
кономи@@ 84
ё 84
вас, 83
льта@@ 83
O 83
январ@@ 83
шие 83
Пушкă@@ 83
зай@@ 82
ö@@ 82
ä@@ 82
Оста@@ 82
тепло@@ 82
²@@ 82
α@@ 82
живо@@ 82
честь 81
неж@@ 81
вал, 81
класс@@ 81
вай, 81
маль@@ 81
разде@@ 81
тый 80
бран@@ 80
добро@@ 80
коммуна 80
ветер@@ 80
дея@@ 80
ника, 80
сти, 80
ран-а@@ 80
сть, 79
ука@@ 79
Дя@@ 79
ило 79
цве@@ 79
свет@@ 79
скри@@ 79
шел. 79
пого@@ 79
хоро@@ 79
ности 79
ву 78
ге 78
виз@@ 78
я; 78
матер@@ 78
радо@@ 78
ю, 77
ко-@@ 77
дет 77
пу 77
обер@@ 77
шу, 77
энерги@@ 77
откры@@ 77
кипе@@ 77
утра 77
ёл 77
центр 77
предло@@ 77
ран-аран 77
реестр@@ 76
сни@@ 76
бе 76
чала 76
требо@@ 76
жение 76
го-@@ 76
вха@@ 76
Отече@@ 76
со 76
=@@ 76
ави@@ 75
ству@@ 75
у. 75
наро@@ 75
Вз@@ 75
цев. 75
пя@@ 75
дил 75
они 74
иг@@ 74
зам@@ 74
имени 74
го, 74
ство. 74
а? 74
нач@@ 74
люб@@ 74
лая 74
ческие 74
ста. 74
ок 74
ню@@ 74
уре@@ 74
сов, 73
По 73
руко@@ 73
Большо@@ 73
танко@@ 73
два 73
времен@@ 73
сок 73
веден@@ 73
удар@@ 73
рази@@ 73
меч@@ 72
раска@@ 72
вое 72
Ç 72
нем 71
вдо@@ 71
собо@@ 71
Зна@@ 71
жал 71
худо@@ 71
обяза@@ 71
„@@ 70
ща 70
кого@@ 70
положени@@ 70
зда@@ 70
блиоте@@ 70
стрелко@@ 70
уби@@ 70
чки 69
тия 69
ново@@ 69
ления 69
Так 69
Цар@@ 69
хо 68
ину@@ 68
во-@@ 68
Прав@@ 68
ς 68
дии 68
следо@@ 68
вы 68
слови@@ 68
сел 68
противо@@ 68
цо 68
о. 67
ρ@@ 67
ь! 67
роди@@ 67
зло@@ 67
нем@@ 67
нии 67
пора@@ 66
“@@ 66
щи 66
чах, 66
жай@@ 66
бере@@ 66
ей, 66
матри@@ 66
ҫих@@ 66
участ@@ 66
России 66
дриль@@ 66
ÿ 66
Б 66
ссажи@@ 66
года 65
крас@@ 65
кова@@ 65
пош@@ 65
лица@@ 64
сбо@@ 64
голов@@ 64
−@@ 64
ا@@ 64
друж@@ 64
реди 64
ҫей 64
потре@@ 64
мно@@ 63
вила 63
шку 63
досто@@ 63
судар@@ 63
день@@ 63
но! 63
нали@@ 63
*@@ 62
вания 62
ческих 62
тен-пӗр 62
стол 62
деж@@ 62
тол@@ 62
ру. 61
холо@@ 61
За 61
Чебок@@ 61
ноч@@ 61
пор 60
бес@@ 60
Васе@@ 60
обра@@ 60
топ@@ 60
..@@ 60
Q@@ 60
дела@@ 60
под 60
канто@@ 60
вне@@ 60
марта 59
Нес@@ 59
об 59
науч@@ 59
сва@@ 59
дов, 59
хушш@@ 59
рый 59
шля@@ 59
страш@@ 58
Сей@@ 58
ческого 58
й; 58
рос@@ 58
Ков@@ 58
стой 58
жден@@ 58
ҫыв@@ 58
партий@@ 58
сторо@@ 58
пес@@ 58
него 57
Дру@@ 57
Ии@@ 57
стоя@@ 57
Петер@@ 57
ски. 57
тюр@@ 57
Ё@@ 57
вско@@ 57
обес@@ 57
b 56
тки 56
бума@@ 56
над 56
чок 56
L 56
теб@@ 56
отли@@ 55
λ@@ 55
зеро@@ 55
няя 55
име@@ 55
D 55
Сою@@ 55
дете@@ 55
ческой 55
деся@@ 55
вых 54
ди! 54
мало@@ 54
вон 54
л? 54
ший 54
Ска@@ 54
так, 54
фана@@ 54
станов@@ 54
испо@@ 53
Ни 53
ку: 53
царь 53
сили@@ 53
спра@@ 53
}@@ 53
стран@@ 53
ν@@ 53
кава@@ 53
дря@@ 52
ло. 52
там, 52
стря@@ 52
СШ@@ 52
жё@@ 52
Гидро@@ 52
драв@@ 52
сти. 52
ди. 52
сто 52
вать@@ 52
рука 52
ну. 52
ры, 52
M 52
государствен@@ 51
Д 51
наблю@@ 51
древ@@ 51
чера 51
вли@@ 51
лу, 51
лена 51
держа@@ 51
{@@ 51
лесо@@ 51
ников. 51
ние, 50
« 50
це 50
установ@@ 50
ем, 50
приказа@@ 50
дру@@ 50
любов@@ 50
Ог@@ 50
ули@@ 50
даго@@ 50
ния, 50
шей 50
старший 49
ют, 49
важ@@ 49
Герой 49
мыс@@ 49
Чо@@ 49
чис@@ 49
дели@@ 49
горь@@ 49
она, 48
τ@@ 48
душ@@ 48
что 48
боле@@ 48
Э 48
деле 48
юань@@ 48
националь@@ 48
бря@@ 48
состав 47
G 47
лест@@ 47
á@@ 47
долго@@ 47
мыш@@ 47
приз@@ 47
T 47
кров@@ 47
современ@@ 47
ся! 47
есть 47
Коне@@ 47
его@@ 47
газе@@ 46
перио@@ 46
слов@@ 46
дал 46
кой 46
лове@@ 46
рил 46
ным 46
чить 46
жи, 46
ι@@ 46
сь, 46
города 46
ем. 46
-ни@@ 46
бед@@ 45
вез@@ 45
и: 45
вё@@ 45
чная 45
служи@@ 45
бь@@ 45
два@@ 45
км²@@ 45
Не 45
сть. 45
лож@@ 44
англи@@ 44
дев@@ 44
─@@ 44
трех 44
& 44
пример@@ 44
ность@@ 44
Й 44
го. 44
да? 43
ному 43
рован@@ 43
ках, 43
креп@@ 43
è@@ 43
дов. 43
Пло@@ 43
РС@@ 43
шь 42
Ҫӳлху@@ 42
де, 42
мило@@ 42
просто@@ 42
ины 42
готов@@ 42
P 42
ждение 42
тот@@ 42
без 42
реб@@ 42
юхан@@ 41
вот 41
жествен@@ 41
é 41
ā@@ 41
остро@@ 41
ней, 41
пись@@ 41
ная, 41
тых 41
обы@@ 40
Л 40
эта 40
красно@@ 40
стави@@ 40
голова 40
ры 40
стве 40
ˈ@@ 40
русский 40
пом@@ 39
вся@@ 39
хозяй@@ 39
опреде@@ 39
гие 39
льз@@ 39
бы 39
американ@@ 39
если 39
-го 39
γ@@ 39
ы, 39
| 39
строи@@ 38
вери@@ 38
предме@@ 38
это@@ 38
но. 38
мать 38
бой 38
Од@@ 38
какая 38
гвардей@@ 38
образо@@ 38
тели 38
дня 38
нима@@ 38
пыт@@ 38
нут 38
жу 38
ты-@@ 38
слов 38
сили 37
ждения 37
κ@@ 37
кну@@ 37
помо@@ 37
U 37
жий 37
ональ@@ 37
жена 37
чный 37
звез@@ 37
вере@@ 37
ой 37
дере@@ 36
чения 36
рань@@ 36
мо, 36
вое@@ 36
пил 36
цикло@@ 36
вал. 36
опа@@ 36
ках. 36
круг@@ 36
день 36
Российской 36
‚ 36
сра@@ 36
ө@@ 36
дав@@ 36
блю@@ 36
Как 36
нее 36
ым 36
бя@@ 36
живот@@ 36
ве. 35
ε@@ 35
росси@@ 35
E 35
ную 35
них 35
# 35
веро@@ 35
доб@@ 35
без@@ 35
пы 35
от, 35
ье, 35
пал 35
щение 35
Из 35
Под 35
орги@@ 35
часть 35
пел 34
Союза 34
гом 34
защи@@ 34
испыта@@ 34
→ 34
убе@@ 34
образ@@ 34
мя 34
вече@@ 34
жду@@ 34
смотри@@ 34
Г 34
$@@ 34
области 34
ل@@ 34
ό@@ 33
йте, 33
* 33
бо, 33
ó@@ 33
í@@ 33
нога@@ 33
Ь@@ 33
уча@@ 33
челове@@ 33
недо@@ 33
ş@@ 33
Господ@@ 33
хоте@@ 33
Челове@@ 33
пря@@ 33
матери 33
им. 33
³@@ 32
повер@@ 32
гане@@ 32
зде@@ 32
ему@@ 32
ر@@ 32
един@@ 32
Нем@@ 32
ся? 32
ким, 32
кого 32
действи@@ 32
собра@@ 32
Его 32
š@@ 32
част@@ 32
жения 32
благо@@ 32
F 32
политиче@@ 32
дома 32
ə@@ 32
Ю 32
йского 32
деятель@@ 31
B 31
извест@@ 31
доч@@ 31
дах 31
ς@@ 31
су, 31
нас, 31
прас@@ 31
вого 31
прер@@ 31
ś@@ 31
резу@@ 31
шки. 31
боло@@ 31
ъ 31
требу@@ 30
дым 30
доволь@@ 30
чение 30
обли@@ 30
	@@ 30
Ильини@@ 30
сму@@ 30
едини@@ 30
ң@@ 30
“ 30
войны 30
Ник@@ 30
мо. 30
соб@@ 30
же. 30
каче@@ 30
равно@@ 30
ост@@ 30
И, 30
жизни 30
же, 30
земле@@ 30
тит 30
ких 30
года@@ 30
шеп@@ 30
μ@@ 30
йской 29
ил: 29
дел 29
язык 29
чно 29
гая 29
гля@@ 29
пья@@ 29
по-@@ 29
├@@ 29
щени@@ 29
свобо@@ 29
π@@ 29
отец 29
ладо@@ 29
жизнь@@ 29
дем 29
лым 28
жиз@@ 28
θ@@ 28
обя@@ 28
тала 28
карто@@ 28
вероят@@ 28
кля@@ 28
иска@@ 28
жизнь 28
смотр@@ 28
H 28
века 28
дая 28
ющий 28
ными 28
φ@@ 28
Вс@@ 28
ворот 28
гала 28
уго@@ 28
люби@@ 28
тся 28
шу. 27
Советского 27
уй, 27
назна@@ 27
лой 27
ү@@ 27
ые 27
¦@@ 27
¦ 27
ом 27
жали 27
али 27
дой 27
му, 27
вста@@ 27
} 27
дорож@@ 27
круг 27
настоя@@ 27
иск@@ 27
вым 27
пять 27
ломо@@ 27
движени@@ 27
Мы 27
ше, 27
Да, 26
σ@@ 26
мг@@ 26
содержа@@ 26
зр@@ 26
− 26
щая 26
дный 26
­@@ 26
ших 26
Алексан@@ 26
русского 26
того 26
č@@ 26
жд@@ 26
і 26
стей 26
ί@@ 26
дву@@ 26
 км 26
начала 26
часть@@ 26
бля@@ 26
тые 26
Чувашской 26
или, 26
ства@@ 25
дца@@ 25
вопро@@ 25
щие 25
жела@@ 25
م@@ 25
шли 25
разви@@ 25
v 25
отра@@ 25
лько 25
кое 25
ствие 25
броси@@ 25
×@@ 25
мой 25
ա@@ 25
раст@@ 25
рва@@ 25
тил 25
ного@@ 25
ях, 25
поня@@ 25
побе@@ 25
мог@@ 25
І@@ 25
представ@@ 25
озер@@ 24
простран@@ 24
Хоро@@ 24
четвер@@ 24
расска@@ 24
дали 24
ведь 24
ي@@ 24
золо@@ 24
Ӗ 24
ног 24
скор@@ 24
ней. 24
показа@@ 24
глу@@ 24
жит 24
твер@@ 24
спин@@ 24
лю, 24
сын 24
ским 24
вам 24
ː@@ 24
тельных 24
зву@@ 24
коне@@ 24
зы, 24
Поз@@ 24
‎@@ 24
уто@@ 23
чая 23
ведения 23
ственный 23
сты 23
объекта 23
щий 23
жен 23
ры. 23
гуль@@ 23
зависи@@ 23
воспо@@ 23
чал 23
борь@@ 23
ого@@ 23
измен@@ 23
Y 23
рыз@@ 23
год 23
горя@@ 23
ющие 23
сред@@ 23
дней 23
раз 23
ним. 23
бога@@ 23
â@@ 23
боя@@ 23
лю. 23
ственной 22
скому 22
глаз 22
ά@@ 22
От 22
соло@@ 22
счасть@@ 22
прили@@ 22
кто 22
вши@@ 22
руба@@ 22
Ц 22
ях. 22
что@@ 22
реч@@ 22
j 22
яро@@ 22
солда@@ 22
присут@@ 22
Рес@@ 22
гром@@ 22
вно 22
вот, 22
кори@@ 21
постоя@@ 21
ние. 21
Оте@@ 21
желез@@ 21
первой 21
довер@@ 21
вмест@@ 21
преде@@ 21
колен@@ 21
объ@@ 21
жала 21
​ 21
ный. 21
отношени@@ 21
прият@@ 21
види@@ 21
ции. 21
дур@@ 21
нра@@ 21
” 21
лоша@@ 20
свер@@ 20
также 20
Великой 20
лые 20
† 20
приход@@ 20
дале@@ 20
нас. 20
моя 20
охо@@ 20
пусти@@ 20
перво@@ 20
лась 20
окон@@ 20
направлени@@ 20
сиде@@ 20
жие 20
во. 20
@@@ 20
ن@@ 20
ей. 20
δ@@ 20
муж@@ 20
нам, 20
و@@ 20
\@@ 20
тельно 20
органи@@ 20
печат@@ 19
подо@@ 19
‏@@ 19
-то@@ 19
после 19
R 19
которые 19
поз@@ 19
дум@@ 19
ется 19
·@@ 19
рами 19
пуст@@ 19
Что 19
свин@@ 19
им, 19
ской, 19
вида@@ 19
сади@@ 19
плы@@ 19
Усть@@ 19
ются 19
ы. 19
пят@@ 19
Он 19
напря@@ 19
ты, 19
книж@@ 19
шо 19
ями 19
сапо@@ 19
мать. 18
чке 18
‎ 18
смерти 18
ники, 18
ради 18
скую 18
рука@@ 18
коле@@ 18
сь! 18
тельный 18
всех 18
ң 18
ств 18
мерт@@ 18
Сво@@ 18
K 18
соба@@ 18
гос@@ 18
изум@@ 18
вля@@ 18
ú@@ 18
сь. 18
коли@@ 18
любо@@ 18
ł@@ 18
чита@@ 18
насе@@ 18
бабу@@ 18
Вот, 18
à 18
Ч 18
буду@@ 17
ника. 17
гото@@ 17
против@@ 17
лиш@@ 17
Отечественной 17
вом 17
немец@@ 17
воск@@ 17
вала, 17
ī@@ 17
неу@@ 17
шап@@ 17
новой 17
Вы 17
кали 17
вну@@ 17
Ты 17
чные 17
уме@@ 17
взя@@ 17
ими 17
ться 17
человек 17
греб@@ 17
сом 17
ю. 17
Есть 17
рые 17
ды, 17
ны. 17
и? 17
небо@@ 17
һ@@ 17
дут 17
ении 16
разил 16
проис@@ 16
à@@ 16
Господа 16
шем 16
ния. 16
солн@@ 16
ся… 16
скоро@@ 16
ной, 16
состоя@@ 16
против 16
ью, 16
встре@@ 16
слова 16
река 16
кост@@ 16
έ@@ 16
ге, 16
прода@@ 16
лежа@@ 16
наве@@ 16
подоб@@ 16
ение, 16
ном, 16
ску 16
ě@@ 16
ком, 16
муниципаль@@ 16
тью 16
воды 16
Если 15
России. 15
└@@ 15
ύ@@ 15
ками 15
рой 15
съ@@ 15
льные 15
север@@ 15
памя@@ 15
жной 15
мы, 15
тепер@@ 15
послед@@ 15
один 15
стал 15
ды. 15
ворот@@ 15
дела 15
гу, 15
ют. 15
ß@@ 15
море 15
ых 15
кие, 15
быва@@ 15
стые 15
меня 15
всё 15
י@@ 15
путь 15
бира@@ 15
æ@@ 15
говори@@ 15
ное, 15
тое 15
смеш@@ 15
Да 15
ребен@@ 15
дерев@@ 15
До 15
дь, 15
кая, 15
времени 15
её 15
той, 15
носи@@ 15
тами 15
том, 15
наи@@ 14
Во 14
пока@@ 14
мало 14
тить 14
χ@@ 14
которых 14
гой 14
годы 14
спро@@ 14
кварти@@ 14
октября 14
мощ@@ 14
внов@@ 14
лами 14
ր@@ 14
относи@@ 14
замеча@@ 14
удоб@@ 14
ность, 14
желе@@ 14
уж@@ 14
более 14
ї 14
υ@@ 14
ν 14
хво@@ 14
чных 14
был 14
вает 14
дом, 14
другие 14
Хот@@ 14
дело@@ 14
_ 14
ї@@ 14
чу, 14
июня 14
ского, 14
β@@ 14
основ@@ 14
деву@@ 14
млад@@ 14
тебя 14
дни 14
января 14
ҕ@@ 14
вая, 13
безо@@ 13
ю! 13
оружи@@ 13
’ 13
это 13
зуба@@ 13
году 13
созна@@ 13
ливо 13
люди 13
чное 13
дене@@ 13
сил 13
тельное 13
ешь@@ 13
друз@@ 13
пути 13
печа@@ 13
्@@ 13
тый, 13
де. 13
сколь@@ 13
года. 13
ющая 13
подви@@ 13
глаза@@ 13
просто 13
было 13
ночь@@ 13
теля@@ 13
суще@@ 13
š 13
шение 13
быть 13
осно@@ 13
нами 13
женщ@@ 13
ә 13
холод@@ 13
ства, 13
других 13
Ж 13
согла@@ 13
د@@ 13
отвер@@ 13
тря@@ 13
про 13
ны, 13
η@@ 13
участи@@ 13
звер@@ 13
лении 13
пры@@ 13
Š@@ 13
ду, 13
Σ@@ 12
ему 12
Арми@@ 12
ности. 12
Отец 12
ē@@ 12
• 12
жерт@@ 12
мые 12
случа@@ 12
шь, 12
созда@@ 12
второ@@ 12
щих 12
Это 12
неве@@ 12
-й 12
ɑ@@ 12
ω@@ 12
там. 12
Когда 12
α 12
пӑшӑр@@ 12
рассе@@ 12
нем, 12
слово@@ 12
Люди 12
прош@@ 12
`@@ 12
доста@@ 12
вали 12
Все 12
³ 12
степ@@ 12
были 12
семей@@ 12
тельного 12
длин@@ 12
Ҫ 12
все, 12
двух 12
‘@@ 12
Ино@@ 12
нию 12
декабря 12
мый 12
заку@@ 12
ции, 12
При 12
лы, 12
ب@@ 12
′@@ 12
бить 12
напи@@ 12
Она 12
дной 12
мама 12
указа@@ 12
ј@@ 12
которая 11
цию 11
которого 11
-то 11
реки 11
мальчи@@ 11
пото@@ 11
гря@@ 11
новый 11
крови@@ 11
рисо@@ 11
останов@@ 11
傳 11
пуска@@ 11
чего 11
обыкновен@@ 11
пой@@ 11
предо@@ 11
наша 11
прости@@ 11
мать, 11
постав@@ 11
вто@@ 11
роб@@ 11
å@@ 11
человече@@ 11
ו@@ 11
разно@@ 11
ê@@ 11
свет 11
мом 11
стару@@ 11
через 11
второй 11
ился 11
теля 11
воору@@ 11
ū@@ 11
ром, 11
Гово@@ 11
территории 11
дядя 11
дочь 11
ع@@ 11
Ӑ 11
школь@@ 11
ك@@ 11
дцать 11
ô@@ 11
первый 11
празд@@ 11
где 11
использо@@ 11
лых 11
мяг@@ 11
обо 11
Č@@ 11
вый@@ 10
ваши 10
ე@@ 10
стек@@ 10
корот@@ 10
путеше@@ 10
то. 10
ми: 10
Кто 10
вший 10
проти@@ 10
гах 10
советский 10
ɪ@@ 10
қ@@ 10
между 10
ноября 10
много@@ 10
близ@@ 10
тихо@@ 10
забы@@ 10
где@@ 10
брат 10
дами 10
особен@@ 10
врат@@ 10
августа 10
среди 10
особ@@ 10
дело 10
ФС@@ 10
є@@ 10
еще 10
ح@@ 10
ة 10
будет 10
Их 10
но… 10
начина@@ 10
меня@@ 10
воздуш@@ 10
конце 10
ственного 10
вена@@ 10
пола@@ 10
хом 10
школ@@ 10
плот@@ 10
ступа@@ 10
ток, 10
года, 10
лу. 10
тыся@@ 10
серд@@ 10
ž@@ 10
Α@@ 9
направ@@ 9
апреля 9
други@@ 9
верх@@ 9
молодо@@ 9
ǎ 9
чон@@ 9
зри@@ 9
\ 9
гу. 9
начале 9
уже 9
кнов@@ 9
сда@@ 9
цвет@@ 9
ի@@ 9
нашего 9
частли@@ 9
который 9
q 9
совершен@@ 9
Ş@@ 9
ש@@ 9
ню 9
слы@@ 9
дура@@ 9
чного 9
Ÿ@@ 9
î@@ 9
ночи 9
вании 9
Товари@@ 9
ству 9
одно@@ 9
~@@ 9
вшая 9
и… 9
счастли@@ 9
увер@@ 9
! — 9
ت@@ 9
разд@@ 9
цело@@ 9
ζ@@ 9
ше. 9
эти 9
Ν@@ 9
вы, 9
всегда 9
мне. 9
рубле@@ 9
дня@@ 9
ı@@ 9
Z 9
хлоп@@ 9
брат@@ 9
множе@@ 9
тебе@@ 9
усили@@ 9
части@@ 9
рот 9
неизвест@@ 9
Неу@@ 9
наши 9
гну@@ 9
жизн@@ 9
молоды@@ 9
ения, 9
É@@ 9
щей 9
ѣ@@ 9
Β@@ 8
ŋ@@ 8
наза@@ 8
ი@@ 8
ა@@ 8
кораб@@ 8
тебе 8
сказа@@ 8
Но 8
городе 8
жду 8
части 8
ночь 8
такое 8
вклю@@ 8
ե@@ 8
ն@@ 8
срав@@ 8
поко@@ 8
ή 8
надо@@ 8
раза 8
конца 8
постро@@ 8
наших 8
ться, 8
Глен@@ 8
тами, 8
нии, 8
много 8
му. 8
разо@@ 8
улиц@@ 8
хочу 8
вшие 8
вый, 8
угод@@ 8
крестьян@@ 8
людей 8
провер@@ 8
á 8
Где 8
улы@@ 8
ью. 8
нику 8
шего 8
Но, 8
такой 8
место@@ 8
ете, 8
скими 8
сообщ@@ 8
отно@@ 8
ность. 8
весе@@ 8
голу@@ 8
чуть 8
ō@@ 8
Тво@@ 8
س@@ 8
тельной 8
место 8
сила 8
малень@@ 8
нами, 8
ë@@ 8
области. 8
Одна@@ 8
Смотри@@ 8
цари@@ 8
только 8
армии 8
ɛ@@ 8
ницы 8
ἀ@@ 8
ной. 8
ном. 7
ï@@ 7
Надеж@@ 7
бе, 7
друг 7
ющих 7
наше@@ 7
поя@@ 7
ě 7
лены 7
друго@@ 7
сосед@@ 7
июля 7
располо@@ 7
′ 7
вели 7
чно, 7
веро-@@ 7
скло@@ 7
ства. 7
ո@@ 7
щее 7
W 7
чики 7
соответ@@ 7
вести 7
чали 7
‰ 7
хорошо@@ 7
товарищ@@ 7
ר@@ 7
покло@@ 7
покры@@ 7
перед@@ 7
проводи@@ 7
скры@@ 7
ты. 7
различ@@ 7
отры@@ 7
быст@@ 7
покой@@ 7
дера@@ 7
час, 7
девя@@ 7
земли 7
ش@@ 7
одна@@ 7
село 7
около 7
стои@@ 7
Почему 7
Ь 7
красо@@ 7
женный 7
верну@@ 7
чёр@@ 7
ная. 7
они, 7
осен@@ 7
посла@@ 7
жды 7
еха@@ 7
ı 7
ещё 7
ги. 7
посту@@ 7
меся@@ 7
неде@@ 7
разби@@ 7
преду@@ 7
ливо@@ 7
семь@@ 7
Они 7
ῆ@@ 7
зы. 7
Δ@@ 7
дить 7
ком. 7
одного 7
лы. 7
ву, 7
ה@@ 7
пали 7
кӑта@@ 7
своей 7
нуж@@ 7
ή@@ 7
ленные 7
дала 7
Λ@@ 6
Μ@@ 6
ением 6
шали 6
 @@ 6
чув@@ 6
ლ@@ 6
J 6
лел 6
ҏ@@ 6
дороги 6
東@@ 6
Í@@ 6
телем 6
значи@@ 6
поряд@@ 6
մ@@ 6
разу@@ 6
Ы 6
Иер@@ 6
Один 6
цы, 6
бу, 6
гда, 6
Только 6
народа 6
ב@@ 6
шил 6
хоти@@ 6
ром. 6
одной 6
солнце 6
пусты@@ 6
точно 6
хозя@@ 6
явля@@ 6
министра@@ 6
тым 6
мог 6
глазами 6
новые 6
Там 6
человека 6
серьез@@ 6
дите 6
возду@@ 6
Κ@@ 6
щал@@ 6
перед 6
круп@@ 6
доба@@ 6
забо@@ 6
дома, 6
Башкорто@@ 6
цу 6
вам, 6
наде@@ 6
дый 6
мной 6
← 6
дать 6
(ГИ@@ 6
шее 6
зре@@ 6
”@@ 6
тельные 6
ешь 6
жу, 6
ребя@@ 6
мое 6
Пусть 6
ступи@@ 6
Еще 6
η 6
вза@@ 6
מ@@ 6
чки, 6
ствии 6
отме@@ 6
шения 6
ׁ@@ 6
ת@@ 6
ува@@ 6
ных, 6
вместе 6
ئ@@ 6
работы 6
сказать, 6
свете 6
ввер@@ 6
ā 6
четы@@ 6
ванием 6
пада@@ 6
юсь 6
которой 6
съе@@ 6
нена@@ 6
позна@@ 6
врем@@ 6
ñ@@ 6
зелен@@ 6
слово 6
плохо@@ 6
своего 6
ɒ@@ 6
тот 6
называ@@ 6
ми; 6
म@@ 6
шим 6
の@@ 6
кото@@ 6
получ@@ 6
игра@@ 6
ò@@ 6
большо@@ 6
рых 6
ی@@ 6
она. 6
женщина 6
ד@@ 6
ў@@ 6
подроб@@ 6
Израиле@@ 6
Ι@@ 5
ностью 5
своих 5
взгля@@ 5
вому 5
человека. 5
ɨ@@ 5
нему 5
сня@@ 5
ваши@@ 5
совсем 5
пожалуй@@ 5
‒@@ 5
цем 5
र@@ 5
ду. 5
í 5
освобо@@ 5
прекрас@@ 5
вших 5
су. 5
проси@@ 5
կ@@ 5
ʁ@@ 5
̃@@ 5
одном 5
этом 5
земле 5
ω 5
кую 5
жет, 5
почти 5
帝@@ 5
ל@@ 5
опять 5
снова 5
быть, 5
ʒ@@ 5
можно 5
вокруг 5
выда@@ 5
сына 5
жая 5
поверх@@ 5
самых 5
момен@@ 5
благодар@@ 5
мысли 5
вы. 5
сы, 5
первого 5
сентября 5
ه@@ 5
Ö@@ 5
щения 5
лил 5
него@@ 5
треть@@ 5
ӵ@@ 5
написа@@ 5
села 5
тако@@ 5
ä 5
всю 5
приве@@ 5
子@@ 5
стая 5
больше 5
взгляд 5
начал@@ 5
свобод@@ 5
-то, 5
себя 5
ע@@ 5
ن 5
ق@@ 5
ствует 5
когда 5
вую 5
десят 5
спуст@@ 5
न@@ 5
нашей 5
стый 5
здоров@@ 5
отдель@@ 5
возра@@ 5
страда@@ 5
± 5
сердце 5
ى@@ 5
оши@@ 5
ز@@ 5
печаль@@ 5
шед@@ 5
Нам 5
ину 5
რ@@ 5
ნ@@ 5
которое 5
время 5
ющей 5
вше@@ 5
знако@@ 5
上@@ 5
били 5
исче@@ 5
здесь 5
упо@@ 5
йти 5
сь… 5
товари@@ 5
иной 5
œ@@ 5
голос 5
чисто@@ 5
настро@@ 5
це. 5
То 5
этой 5
логической 5
половин@@ 5
болез@@ 5
должен 5
приш@@ 5
комна@@ 5
″ 5
द@@ 5
сну@@ 5
ные, 5
сооб@@ 5
рым 5
году. 5
вож@@ 5
ø@@ 5
реши@@ 5
жили 5
Π@@ 5
приня@@ 5
Ә@@ 5
ожида@@ 5
ились 5
была 5
ще, 5
валя@@ 5
нием 5
Гля@@ 5
ходит 5
Ο@@ 4
завтра 4
разли@@ 4
ғ@@ 4
უ@@ 4
თ@@ 4
понима@@ 4
це, 4
занима@@ 4
лся 4
京@@ 4
、@@ 4
石@@ 4
дивизии 4
соз@@ 4
имя 4
ӕ@@ 4
исчез@@ 4
товарищ 4
ходят 4
двер@@ 4
է@@ 4
ļ@@ 4
сосе@@ 4
большой 4
нельзя 4
ся: 4
ехал 4
продол@@ 4
исполь@@ 4
сы. 4
― 4
буде@@ 4
ת 4
идет 4
бе. 4
друга 4
выбра@@ 4
давно 4
ошиб@@ 4
ное. 4
 — @@ 4
чтобы 4
сих 4
думал 4
возвра@@ 4
порядо@@ 4
дет, 4
како@@ 4
согласи@@ 4
вшего 4
юно@@ 4
работа@@ 4
дума@@ 4
фронта. 4
≈ 4
å 4
ö 4
себе 4
ὐ@@ 4
вспомина@@ 4
ством 4
нож@@ 4
ю… 4
надо 4
ходя@@ 4
всего 4
часов 4
здоро@@ 4
ения. 4
ð@@ 4
белы@@ 4
объяс@@ 4
успе@@ 4
хся 4
детей 4
пой 4
Несколько 4
د 4
ف@@ 4
полага@@ 4
Ü@@ 4
есть@@ 4
мого 4
呼@@ 4
兰@@ 4
府@@ 4
умер@@ 4
мешо@@ 4
è 4
котором 4
наход@@ 4
א@@ 4
пока 4
​@@ 4
зави@@ 4
из-@@ 4
раз, 4
мой, 4
часа 4
прой@@ 4
может 4
тюрь@@ 4
помн@@ 4
броса@@ 4
вается 4
1-го 4
женщин@@ 4
необходи@@ 4
доми@@ 4
ваться 4
вшихся 4
глаза 4
еся 4
ные. 4
крест@@ 4
Очень 4
ş 4
составля@@ 4
нить 4
вперед, 4
大@@ 4
казал@@ 4
стороны 4
дети 4
нару@@ 4
их, 4
цы. 4
призна@@ 4
ɣ@@ 4
Щ 4
сохран@@ 4
лесу 4
І 4
Ӳ 4
Ă 4
Федерации. 4
вайте 4
гвардии 4
станови@@ 4
отправ@@ 4
сегод@@ 4
человека, 4
? — 4
огром@@ 4
из-за 4
ս@@ 4
России, 4
запла@@ 4
молодой 4
другой 4
Бог 4
тебя, 4
ַ@@ 4
месте 4
כ@@ 4
Что@@ 4
ة@@ 4
удал@@ 4
него, 4
районе 4
щу 4
ним, 4
стали 4
‰@@ 4
говоря@@ 4
дороге 4
жно 4
海@@ 4
ҳ@@ 4
Қ@@ 4
каки@@ 4
есть, 4
собствен@@ 4
этого 4
надца@@ 4
Ž@@ 4
स@@ 4
себ@@ 4
дево@@ 4
люде@@ 4
Ханты-Мансий@@ 4
чать 4
Ν 4
× 4
ᾰ@@ 4
ԓ@@ 4
возмож@@ 4
̆@@ 4
хочет 3
Ω@@ 3
Σ 3
каж@@ 3
конец 3
ἰ@@ 3
ქ@@ 3
ო@@ 3
書@@ 3
кими 3
ს@@ 3
ვ@@ 3
слуша@@ 3
Сегодня 3
чего@@ 3
тоже 3
ю: 3
½@@ 3
ि@@ 3
ा@@ 3
卦@@ 3
ӓ@@ 3
Насе@@ 3
Ա@@ 3
ւ@@ 3
ջ@@ 3
очере@@ 3
осве@@ 3
знает 3
закры@@ 3
двена@@ 3
道@@ 3
յ@@ 3
женные 3
кой. 3
мся 3
впервые 3
надеж@@ 3
±@@ 3
шло 3
свои 3
возгла@@ 3
когда@@ 3
осмо@@ 3
ственно 3
明@@ 3
будем 3
бы. 3
фамили@@ 3
лением 3
川@@ 3
попа@@ 3
ных. 3
встреча@@ 3
голоса 3
щего 3
ś 3
←@@ 3
вышла 3
Җ@@ 3
стрелковой 3
его, 3
ю? 3
аэ@@ 3
стала 3
одна 3
ником 3
ɡ@@ 3
ǐ@@ 3
ḫ@@ 3
ласко@@ 3
ù@@ 3
буду 3
ужа@@ 3
ʊ@@ 3
нимал@@ 3
江@@ 3
南@@ 3
學@@ 3
堂@@ 3
шими 3
ұ@@ 3
Сам 3
чили 3
ῶ@@ 3
ῷ@@ 3
непре@@ 3
Ḥ@@ 3
本@@ 3
ì@@ 3
способ@@ 3
ت 3
красноар@@ 3
сно 3
тельно, 3
Мне 3
сказал 3
व@@ 3
отцо@@ 3
пять@@ 3
полно@@ 3
त@@ 3
ящи@@ 3
распа@@ 3
суро@@ 3
чу. 3
Каж@@ 3
↑@@ 3
навер@@ 3
молча@@ 3
стом 3
ись 3
Ł@@ 3
дает 3
После 3
самый 3
брать@@ 3
вился 3
下@@ 3
очень 3
большая 3
того, 3
улыб@@ 3
†@@ 3
მ@@ 3
ницу 3
ó 3
ִ@@ 3
обрат@@ 3
Хорошо@@ 3
винова@@ 3
ḥ@@ 3
ּ@@ 3
ງ@@ 3
зыва@@ 3
сыла@@ 3
такие 3
семь 3
силы 3
Для 3
Ё 3
Ү@@ 3
звон@@ 3
周@@ 3
жать 3
роде 3
вами 3
том. 3
̣@@ 3
ɾ@@ 3
ü 3
обма@@ 3
ῦ@@ 3
рассказыва@@ 3
нюю 3
ć@@ 3
ение. 3
Тут 3
сторону 3
© 3
всю@@ 3
этих 3
медлен@@ 3
Пока 3
ध@@ 3
ֹ@@ 3
оно 3
տ@@ 3
ն 3
руки 3
четыре 3
Q 3
работу 3
жизни. 3
бы, 3
лись 3
ी@@ 3
ρ 3
люди, 3
Ἄ@@ 3
губа@@ 3
осталь@@ 3
головы 3
довольстви@@ 3
ã@@ 3
ń@@ 3
видеть 3
живе@@ 3
ню, 3
ю; 3
ге. 3
стреля@@ 3
ву. 3
хорошо, 3
кой, 3
җ@@ 3
солдат 3
чит 3
держи@@ 3
места@@ 3
क@@ 3
ˁ@@ 3
汉@@ 3
⊗ 3
ʰ@@ 3
жает 3
Ө@@ 3
ҏ 3
яся 3
которую 3
сдела@@ 3
ə 3
весь 3
сами 3
պ@@ 3
знаком@@ 3
гает 3
куда 3
его. 3
ĭ 3
свою 3
увиде@@ 3
ο 3
Из-@@ 3
弁@@ 3
Пёт@@ 3
ҥ@@ 3
является 3
ясь 3
Никто 3
ی 3
моего 3
̆ 3
мы. 3
″@@ 3
Ε@@ 2
Ρ@@ 2
Ничего 2
третий 2
народ 2
朝@@ 2
劉@@ 2
𐱅@@ 2
𐰼@@ 2
漢@@ 2
前@@ 2
შ@@ 2
вновь 2
образом 2
вые, 2
разных 2
терпе@@ 2
．@@ 2
ज@@ 2
ी 2
ć 2
白@@ 2
ɤ@@ 2
стью 2
выми 2
воду 2
нии. 2
德@@ 2
经@@ 2
ż@@ 2
получил 2
π 2
день, 2
ᾱ@@ 2
помни@@ 2
лице 2
оконча@@ 2
ם@@ 2
махи@@ 2
Մ@@ 2
շ@@ 2
счита@@ 2
двое 2
͡@@ 2
совер@@ 2
黄@@ 2
璠@@ 2
Æ@@ 2
бу. 2
歌@@ 2
йся 2
Цюань@@ 2
думы@@ 2
большое 2
Ъ@@ 2
стоит 2
тую 2
хорошо 2
или. 2
товарища@@ 2
ожи@@ 2
охот@@ 2
больше@@ 2
правда, 2
будто 2
было@@ 2
которым 2
прино@@ 2
国@@ 2
нее, 2
ԋ@@ 2
постоян@@ 2
собира@@ 2
прикры@@ 2
глубо@@ 2
€ 2
уте@@ 2
уверен@@ 2
ά 2
все-таки 2
サ@@ 2
夫@@ 2
сказала 2
芥@@ 2
園@@ 2
ǔ@@ 2
вало 2
ющего 2
числен@@ 2
захва@@ 2
станет 2
ک@@ 2
шь? 2
ą 2
лучше 2
рачи@@ 2
лицо 2
פ@@ 2
‑@@ 2
ف 2
льно 2
дога@@ 2
县@@ 2
широко 2
श@@ 2
ӹ@@ 2
щал 2
ث@@ 2
ي 2
נ@@ 2
хоче@@ 2
अ@@ 2
ह@@ 2
немно@@ 2
царя 2
ɔ@@ 2
нельз@@ 2
казался 2
春@@ 2
сели 2
отда@@ 2
荀@@ 2
ֵ@@ 2
ным, 2
ğ@@ 2
участник 2
тому, 2
ваются 2
Теперь 2
мои 2
возвраща@@ 2
ҡ@@ 2
ز 2
ющее 2
возь@@ 2
глазах 2
ү 2
ями, 2
Куда 2
ею 2
старый 2
кое-@@ 2
знакомы@@ 2
ج@@ 2
§ 2
า@@ 2
ไ@@ 2
ม@@ 2
сколько 2
тяже@@ 2
многих 2
всему 2
ò 2
ი 2
гами 2
繫@@ 2
辭@@ 2
людей, 2
õ@@ 2
º 2
государственном 2
сквозь 2
вину@@ 2
тобой 2
Конечно, 2
берегу 2
Å@@ 2
ზ@@ 2
զ@@ 2
ְ@@ 2
вался 2
листь@@ 2
ė@@ 2
повтори@@ 2
юще@@ 2
чку 2
ḏ@@ 2
самого 2
ления. 2
подня@@ 2
гом, 2
ວ@@ 2
安@@ 2
моей 2
Над 2
удовольстви@@ 2
довольно 2
землю 2
жизни, 2
знамени@@ 2
象@@ 2
ӈ@@ 2
Ө 2
Ү 2
Һ 2
Ъ 2
чего, 2
прибли@@ 2
никого 2
ἔ@@ 2
易@@ 2
ì 2
бесе@@ 2
ʂ@@ 2
Ÿ 2
находится 2
потер@@ 2
Ӏ@@ 2
течение 2
могу@@ 2
ʃ@@ 2
ّ@@ 2
ночью 2
жил 2
ками, 2
цу, 2
неприят@@ 2
پ@@ 2
چ@@ 2
ه 2
это, 2
列@@ 2
ラ@@ 2
вшегося 2
вдруг 2
ę@@ 2
ą@@ 2
ющим 2
̄@@ 2
ß 2
свой 2
едва 2
такого 2
彖@@ 2
ֶ@@ 2
сказать 2
都@@ 2
Λ 2
мгнов@@ 2
бря 2
Уж 2
Значит, 2
произо@@ 2
жало@@ 2
меня. 2
[ 2
слова. 2
места 2
ˌ@@ 2
ק 2
ắ@@ 2
которы@@ 2
Или 2
просну@@ 2
Ἀ@@ 2
ď@@ 2
легко 2
теперь 2
следу@@ 2
этот 2
пущен@@ 2
шую 2
внутрен@@ 2
Может 2
ӥ@@ 2
накло@@ 2
мою 2
сказал@@ 2
خ@@ 2
ὀ@@ 2
пришел 2
хочется 2
надцать 2
日@@ 2
сейчас 2
дно, 2
Здесь 2
ности, 2
голову 2
年@@ 2
уничто@@ 2
вперед 2
Đ@@ 2
жел@@ 2
гроз@@ 2
даже 2
но? 2
именно 2
寺 2
туда 2
ӏ@@ 2
тому 2
непо@@ 2
сынов 2
Є@@ 2
дверь 2
всё@@ 2
начин@@ 2
æ 2
вшийся 2
ҫанта@@ 2
волно@@ 2
ý@@ 2
突@@ 2
впере@@ 2
цами 2
пред 2
ल@@ 2
сделать 2
сухо@@ 2
ḥ 2
˩@@ 2
˧@@ 2
ص@@ 2
北@@ 2
᾽@@ 2
ψ@@ 2
нице 2
Надо 2
случ@@ 2
вдоль 2
шесть 2
представля@@ 2
ž 2
должны 2
водном 2
ʧ@@ 2
陽@@ 2
ʿ@@ 2
ʔ@@ 2
сделал 2
зап@@ 2
напо@@ 2
ѣ 2
пригла@@ 2
Види@@ 2
և@@ 2
вым, 2
β 2
кину@@ 2
улице 2
чила 2
нул 2
дыха@@ 2
вают 2
юсь, 2
~ 2
илось 2
Ե@@ 2
опасно@@ 2
施 2
говорил 2
чным 2
َ@@ 2
長@@ 2
правиль@@ 2
спря@@ 2
людь@@ 2
Ó 2
чил 2
шёл 2
ח@@ 2
говорит 2
кому 2
несколь@@ 2
武@@ 2
ס@@ 2
י 2
関@@ 2
ябло@@ 2
，@@ 2
моих 2
ा 2
беспо@@ 2
двадцать 2
𒊏@@ 2
ʀ@@ 2
стью, 2
ۇ@@ 2
غ@@ 2
ر 2
م 2
появ@@ 2
устро@@ 2
людей. 2
доме 2
九@@ 2
鬼 2
Я, 2
услы@@ 2
ब@@ 2
ु@@ 2
ध 2
дцати 2
будут 2
լ@@ 2
ը@@ 2
жесто@@ 2
темно@@ 2
史@@ 2
одно 2
መ@@ 2
҃@@ 2
Перед 2
қ 2
孔@@ 2
сегодня 2
腹@@ 2
切@@ 2
ченный 2
特@@ 2
普@@ 2
欽@@ 2
բ@@ 2
ехал@@ 2
ገ@@ 2
ት@@ 2
ἄ@@ 2
̱@@ 2
İ@@ 2
‌@@ 2
ን@@ 2
ሥ@@ 2
Ў 1
растер@@ 1
Τ@@ 1
Υ@@ 1
Υ 1
Η@@ 1
ями. 1
唐@@ 1
衎@@ 1
тобо@@ 1
𐰭@@ 1
𐰃@@ 1
ბ@@ 1
£@@ 1
ბ 1
ჯ@@ 1
ღ@@ 1
ешь? 1
самы@@ 1
岩@@ 1
波@@ 1
店@@ 1
смотрел 1
फ@@ 1
़@@ 1
ग@@ 1
ण@@ 1
य@@ 1
序@@ 1
Þ@@ 1
ӹ 1
рассу@@ 1
齐@@ 1
зывал 1
получа@@ 1
Χ@@ 1
пое@@ 1
ւ 1
руками 1
никто 1
Գ@@ 1
說@@ 1
ˊ@@ 1
拔@@ 1
塞@@ 1
干 1
ступил 1
順@@ 1
гать 1
ղ 1
Բ 1
шься 1
работал 1
себе, 1
勒@@ 1
後@@ 1
趙@@ 1
тысячи 1
現@@ 1
现@@ 1
広@@ 1
重@@ 1
сорок 1
Ханты-Ман@@ 1
马@@ 1
凡@@ 1
десяти 1
ʻ@@ 1
ного. 1
書 1
书 1
Мать 1
` 1
ехать 1
назад 1
раду@@ 1
равно 1
теперь, 1
взять 1
ходил 1
Ђ@@ 1
ɐ@@ 1
больше, 1
иногда 1
ド@@ 1
侯@@ 1
爵@@ 1
人 1
ось, 1
畫@@ 1
譜@@ 1
ранен@@ 1
распо@@ 1
позво@@ 1
глуб@@ 1
潮@@ 1
騒 1
голове 1
какой 1
水@@ 1
師@@ 1
礦@@ 1
路@@ 1
долго 1
внима@@ 1
могу 1
Á@@ 1
北 1
吴@@ 1
湘@@ 1
赣@@ 1
客@@ 1
家@@ 1
粤@@ 1
闽@@ 1
ным. 1
⋅@@ 1
чень 1
менно 1
шь. 1
какие 1
ὄ@@ 1
двери 1
Ű@@ 1
ű@@ 1
њ@@ 1
紀 1
纪 1
смотрели 1
ה 1
Φ@@ 1
ώ 1
бежа@@ 1
ؤ@@ 1
豆@@ 1
腐 1
· 1
возь 1
ا 1
ڤ@@ 1
´@@ 1
® 1
говорить 1
нее. 1
憂@@ 1
国 1
дом. 1
выпол@@ 1
клады@@ 1
деревня 1
повторя@@ 1
вся 1
пожал@@ 1
вались 1
головой 1
Î@@ 1
видел 1
‒ 1
посмотре@@ 1
твой 1
ешь, 1
况@@ 1
卿@@ 1
θ 1
руку 1
одино@@ 1
ﻥ 1
находи@@ 1
живу@@ 1
своем 1
протя@@ 1
ώ@@ 1
Ἶ@@ 1
утром 1
спокойно 1
Ó@@ 1
дешь 1
хну@@ 1
ом, 1
глядел 1
ฤ@@ 1
ท@@ 1
ธ@@ 1
ิ@@ 1
์@@ 1
ด@@ 1
บ@@ 1
้@@ 1
ผ@@ 1
่@@ 1
прежде 1
¥@@ 1
円 1
последние 1
齊@@ 1
муже@@ 1
ются, 1
никогда 1
хвата@@ 1
∇ 1
ῥ@@ 1
нужно 1
უ 1
文@@ 1
言@@ 1
ӫ@@ 1
̂@@ 1
お@@ 1
茶 1
դ@@ 1
Ḫ@@ 1
шь! 1
гося 1
лую 1
приба@@ 1
ŭ 1
连@@ 1
Башкортостан 1
пригото@@ 1
經@@ 1
ù 1
ָ@@ 1
мую 1
прине@@ 1
中@@ 1
華@@ 1
字@@ 1
海 1
ຽ@@ 1
ຈ@@ 1
ັ@@ 1
ນ@@ 1
部@@ 1
公@@ 1
房@@ 1
стно 1
енно 1
должна 1
ĭ@@ 1
Ӈ 1
Ӈ@@ 1
ө 1
раскры@@ 1
Ты, 1
ɯ@@ 1
Ï@@ 1
их. 1
нял 1
истре@@ 1
Кроме 1
ничего 1
ӣ@@ 1
Однако 1
спросил@@ 1
почему 1
思@@ 1
孟@@ 1
派 1
погиб@@ 1
скольз@@ 1
знаю, 1
ходили 1
ʌ@@ 1
вшись 1
传 1
桜 1
櫻@@ 1
ク@@ 1
показыва@@ 1
могут 1
ʔ 1
	 1
ै@@ 1
व 1
Ἑ@@ 1
ק@@ 1
ê 1
каждый 1
ἐ@@ 1
окна 1
кресть@@ 1
первые 1
но: 1
‏ 1
самом 1
вообще 1
新@@ 1
朝 1
幸@@ 1
野 1
楳@@ 1
嶺@@ 1
^@@ 1
ϸ 1
ў 1
своими 1
真@@ 1
夏@@ 1
死 1
положил 1
таким 1
Сколько 1
û@@ 1
привет@@ 1
ų 1
ἶ@@ 1
美@@ 1
し@@ 1
い@@ 1
星 1
выз@@ 1
雜@@ 1
пришла 1
нуть 1
будь 1
♃ 1
ую 1
王 1
ἤ@@ 1
鏡@@ 1
家 1
своим 1
жале@@ 1
казыва@@ 1
тился 1
喜@@ 1
多@@ 1
麿@@ 1
одну 1
всякий 1
вольно 1
愛@@ 1
渇@@ 1
き 1
Ë@@ 1
двумя 1
посте@@ 1
Շ@@ 1
ť 1
земля 1
лить 1
­ 1
несколько 1
думать 1
國 1
教@@ 1
Устье 1
знал, 1
сь: 1
ется, 1
ô 1
них, 1
Код 1
ຫ@@ 1
ລ@@ 1
ພ@@ 1
ະ@@ 1
ບ@@ 1
າ@@ 1
ý 1
今@@ 1
月@@ 1
號@@ 1
одеж@@ 1
ỹ@@ 1
正@@ 1
政@@ 1
посмотрел 1
него. 1
ẵ@@ 1
иму@@ 1
войны, 1
خ 1
спраши@@ 1
преры@@ 1
∗@@ 1
ее, 1
быстро 1
оставля@@ 1
могли 1
жены 1
рядом 1
暁@@ 1
вшей 1
ố 1
ồ 1
уж 1
юся 1
ắ 1
Ќ@@ 1
шум@@ 1
ӧ@@ 1
ό 1
немного 1
λ 1
рую 1
将@@ 1
軍 1
меня, 1
护@@ 1
ғ 1
ему, 1
Ḏ@@ 1
ŷ 1
кроме 1
ὸ@@ 1
Ἐ@@ 1
გ@@ 1
ო 1
ʁ 1
𐰇@@ 1
𐰰@@ 1
厥@@ 1
£ 1
ясь, 1
тесь, 1
ष@@ 1
ṣ@@ 1
ī 1
лась, 1
语@@ 1
拼@@ 1
音@@ 1
ǔ 1
ข@@ 1
ว@@ 1
ณ@@ 1
ี 1
˦ 1
宴@@ 1
あ@@ 1
と 1
ء 1
™ 1
должно 1
пусто@@ 1
盘@@ 1
Ί@@ 1
принад@@ 1
ỉ@@ 1
ҧ@@ 1
礼 1
禮@@ 1
Этот 1
собой 1
Ä 1
Č 1
Š 1
Ž 1
встрет@@ 1
元@@ 1
成@@ 1
宗@@ 1
нять 1
『@@ 1
徳@@ 1
幕@@ 1
事@@ 1
典@@ 1
』 1
出@@ 1
版@@ 1
． 1
¬@@ 1
шалăх 1
‡ 1
̥@@ 1
тебе, 1
瀋@@ 1
нашу 1
Ø@@ 1
ϰ@@ 1
، 1
правился 1
цу. 1
̯@@ 1
землю@@ 1
京 1
ждал@@ 1
∫@@ 1
ſ 1
валась 1
ジ@@ 1
ャ@@ 1
ポ@@ 1
ニ@@ 1
ス@@ 1
ム@@ 1
зади 1
わ@@ 1
が@@ 1
友@@ 1
ヒ@@ 1
ッ@@ 1
ト@@ 1
ー 1
жив 1
большую 1
либо 1
Ի@@ 1
водного 1
маленький 1
корто@@ 1
ᠲ@@ 1
ᠡ@@ 1
ᠩ@@ 1
ᠷ@@ 1
ᠢ 1
騰@@ 1
格@@ 1
里@@ 1
ставля@@ 1
числе 1
беспокой@@ 1
‐@@ 1
淳@@ 1
維@@ 1
бог 1
две 1
хоть 1
тыми 1
五@@ 1
行 1
дал, 1
Господь 1
получи@@ 1
твои 1
новых 1
‍@@ 1
дома. 1
усали@@ 1
奔@@ 1
馬 1
Ғ@@ 1
Զ@@ 1
լ 1
ԋ 1
骑@@ 1
делать 1
ѓ@@ 1
случае 1
след 1
Ґ 1
ґ 1
рукой 1
поче@@ 1
金@@ 1
閣@@ 1
ţ@@ 1
ُ@@ 1
支@@ 1
倉@@ 1
六@@ 1
右@@ 1
衛@@ 1
門@@ 1
常@@ 1
имеет 1
®@@ 1
начал 1
чался 1
ꆈ@@ 1
ꌠ@@ 1
ꁱ@@ 1
ꂷ 1
протекает 1
этим 1
ַ 1
смотре@@ 1
говорю 1
Ή@@ 1
Ά@@ 1
ξ@@ 1
тысяч 1
ӱ@@ 1
Ξ@@ 1
последний 1
צ@@ 1
ר 1
φ 1
авиацион@@ 1
мимо 1
西@@ 1
ɫ@@ 1
было, 1
бил 1
куда@@ 1
ребята 1
каждо@@ 1
ả@@ 1
防@@ 1
Â@@ 1
{ 1
恨@@ 1
不@@ 1
生@@ 1
三@@ 1
百@@ 1
為@@ 1
青@@ 1
藤@@ 1
磨@@ 1
墨@@ 1
理@@ 1
紙@@ 1
смотрела 1
дости@@ 1
нув 1
ҥ 1
большим 1
себя, 1
вых, 1
ться. 1
читы@@ 1
𒆍@@ 1
𒀭@@ 1
𒆠@@ 1
̃ 1
часто 1
ڭ 1
ного, 1
реша@@ 1
丘@@ 1
就@@ 1
卻@@ 1
вилось 1
ждать 1
взял 1
ồ@@ 1
ớ@@ 1
жу. 1
ů@@ 1
откуда 1
ј 1
ʲ@@ 1
тогда 1
поднима@@ 1
隆@@ 1
一@@ 1
добра@@ 1
ं@@ 1
ृ@@ 1
च@@ 1
ē 1
ḍ@@ 1
ǖ@@ 1
ῠ@@ 1
Чтобы 1
ᠮ@@ 1
ᠠ@@ 1
ᠨ@@ 1
ᠵ@@ 1
ᡠ 1
ную, 1
найти 1
ешь. 1
呐@@ 1
喊@@ 1
佛@@ 1
教 1
☉@@ 1
вышел 1
знал 1
ף 1
ן 1
ו 1
Ä@@ 1
Կ@@ 1
է 1
Ս@@ 1
հ@@ 1
ի 1
勿@@ 1
忘@@ 1
草@@ 1
прокля@@ 1
тихонь@@ 1
徹@@ 1
孝@@ 1
皇@@ 1
記 1
记@@ 1
потом 1
лось 1
завтра@@ 1
圓 1
чувству@@ 1
ȝ@@ 1
пить 1
ኣ@@ 1
ስ@@ 1
ራ@@ 1
禁@@ 1
色 1
҂@@ 1
ѕ@@ 1
҃ 1
ѹ@@ 1
ѧ@@ 1
навли@@ 1
ẖ@@ 1
造@@ 1
Ô 1
себе. 1
Вдруг 1
ноги 1
вчера 1
½ 1
仮@@ 1
面@@ 1
告@@ 1
白 1
востор@@ 1
Ему 1
À 1
り@@ 1
многие 1
福@@ 1
清@@ 1
ʈ@@ 1
峡@@ 1
橋 1
тся, 1
鼠@@ 1
尼@@ 1
человек. 1
сюда 1
кнул 1
прямо 1
മ@@ 1
ല@@ 1
യ@@ 1
ാ@@ 1
ള@@ 1
ം@@ 1
попро@@ 1
Լ@@ 1
ռ@@ 1
Ղ@@ 1
ղ@@ 1
стрелкового 1
𒀸@@ 1
𒋗@@ 1
𒈬@@ 1
Վ@@ 1
ժ@@ 1
Հ@@ 1
գ@@ 1
ս 1
ք@@ 1
дело. 1
ῖ@@ 1
ł 1
выле@@ 1
ε 1
ехали 1
лежит 1
ሃ@@ 1
ረ 1
ኤ@@ 1
ር@@ 1
ራ 1
إ@@ 1
宮@@ 1
川 1
ὖ 1
共@@ 1
通@@ 1
語 1
Ҥ 1
ходила 1
людя@@ 1
წ@@ 1
работать 1
ť@@ 1
ними 1
обраща@@ 1
Ĕ 1
человек, 1
потому 1
ŕ@@ 1
Ğ@@ 1
ğ 1
Ǩ@@ 1
ǩ 1
Ť@@ 1
такая 1
口@@ 1
ǒ@@ 1
поги@@ 1
остался 1
поставил 1
ן@@ 1
È@@ 1
вышли 1
слышал@@ 1
знает, 1
仁 1
義 1
禮 1
智 1
быстро@@ 1
щую 1
↔ 1
разда@@ 1
ك 1
спокой@@ 1
处@@ 1
木@@ 1
昆@@ 1
而@@ 1
二@@ 1
儿@@ 1
¾@@ 1
የ@@ 1
ኢ@@ 1
ዮ@@ 1
ጵ@@ 1
ያ 1
ጉ@@ 1
ሠ 1
ነ@@ 1
ት 1
ግ@@ 1
ተ@@ 1
雅@@ 1
砻@@ 1
сторон@@ 1
ń 1
Ὄ@@ 1
какой-то 1
узна@@ 1
владе@@ 1
≥ 1
č 1
ﻫ@@ 1
ﺎ 1
письмо 1
太@@ 1
と@@ 1
鉄 1
слож@@ 1
Через 1
Эти 1
шно 1
ными, 1
樹@@ 1
人@@ 1
сартӑк 1
впол@@ 1
привы@@ 1
$ 1
девоч@@ 1
¡@@ 1
↑ 1
ð 1
Œ@@ 1
